const unsigned char model[] = {
  0x1c, 0x00, 0x00, 0x00, 0x54, 0x46, 0x4c, 0x33, 0x14, 0x00, 0x20, 0x00,
  0x1c, 0x00, 0x18, 0x00, 0x14, 0x00, 0x10, 0x00, 0x0c, 0x00, 0x00, 0x00,
  0x08, 0x00, 0x04, 0x00, 0x14, 0x00, 0x00, 0x00, 0x1c, 0x00, 0x00, 0x00,
  0x98, 0x00, 0x00, 0x00, 0xf0, 0x00, 0x00, 0x00, 0x1c, 0x0c, 0x00, 0x00,
  0x2c, 0x0c, 0x00, 0x00, 0xe0, 0x11, 0x00, 0x00, 0x03, 0x00, 0x00, 0x00,
  0x01, 0x00, 0x00, 0x00, 0x10, 0x00, 0x00, 0x00, 0x00, 0x00, 0x0a, 0x00,
  0x10, 0x00, 0x0c, 0x00, 0x08, 0x00, 0x04, 0x00, 0x0a, 0x00, 0x00, 0x00,
  0x0c, 0x00, 0x00, 0x00, 0x1c, 0x00, 0x00, 0x00, 0x3c, 0x00, 0x00, 0x00,
  0x0f, 0x00, 0x00, 0x00, 0x73, 0x65, 0x72, 0x76, 0x69, 0x6e, 0x67, 0x5f,
  0x64, 0x65, 0x66, 0x61, 0x75, 0x6c, 0x74, 0x00, 0x01, 0x00, 0x00, 0x00,
  0x04, 0x00, 0x00, 0x00, 0x90, 0xff, 0xff, 0xff, 0x0a, 0x00, 0x00, 0x00,
  0x04, 0x00, 0x00, 0x00, 0x08, 0x00, 0x00, 0x00, 0x6f, 0x75, 0x74, 0x70,
  0x75, 0x74, 0x5f, 0x30, 0x00, 0x00, 0x00, 0x00, 0x01, 0x00, 0x00, 0x00,
  0x04, 0x00, 0x00, 0x00, 0xca, 0xf3, 0xff, 0xff, 0x04, 0x00, 0x00, 0x00,
  0x0c, 0x00, 0x00, 0x00, 0x6b, 0x65, 0x72, 0x61, 0x73, 0x5f, 0x74, 0x65,
  0x6e, 0x73, 0x6f, 0x72, 0x00, 0x00, 0x00, 0x00, 0x02, 0x00, 0x00, 0x00,
  0x34, 0x00, 0x00, 0x00, 0x04, 0x00, 0x00, 0x00, 0xdc, 0xff, 0xff, 0xff,
  0x0d, 0x00, 0x00, 0x00, 0x04, 0x00, 0x00, 0x00, 0x13, 0x00, 0x00, 0x00,
  0x43, 0x4f, 0x4e, 0x56, 0x45, 0x52, 0x53, 0x49, 0x4f, 0x4e, 0x5f, 0x4d,
  0x45, 0x54, 0x41, 0x44, 0x41, 0x54, 0x41, 0x00, 0x08, 0x00, 0x0c, 0x00,
  0x08, 0x00, 0x04, 0x00, 0x08, 0x00, 0x00, 0x00, 0x0c, 0x00, 0x00, 0x00,
  0x04, 0x00, 0x00, 0x00, 0x13, 0x00, 0x00, 0x00, 0x6d, 0x69, 0x6e, 0x5f,
  0x72, 0x75, 0x6e, 0x74, 0x69, 0x6d, 0x65, 0x5f, 0x76, 0x65, 0x72, 0x73,
  0x69, 0x6f, 0x6e, 0x00, 0x0e, 0x00, 0x00, 0x00, 0x28, 0x0b, 0x00, 0x00,
  0x20, 0x0b, 0x00, 0x00, 0x50, 0x0a, 0x00, 0x00, 0x40, 0x02, 0x00, 0x00,
  0x24, 0x02, 0x00, 0x00, 0xd4, 0x01, 0x00, 0x00, 0x44, 0x01, 0x00, 0x00,
  0xb4, 0x00, 0x00, 0x00, 0xac, 0x00, 0x00, 0x00, 0xa4, 0x00, 0x00, 0x00,
  0x9c, 0x00, 0x00, 0x00, 0x94, 0x00, 0x00, 0x00, 0x74, 0x00, 0x00, 0x00,
  0x04, 0x00, 0x00, 0x00, 0x7e, 0xf4, 0xff, 0xff, 0x04, 0x00, 0x00, 0x00,
  0x60, 0x00, 0x00, 0x00, 0x10, 0x00, 0x00, 0x00, 0x00, 0x00, 0x00, 0x00,
  0x08, 0x00, 0x0e, 0x00, 0x08, 0x00, 0x04, 0x00, 0x08, 0x00, 0x00, 0x00,
  0x10, 0x00, 0x00, 0x00, 0x24, 0x00, 0x00, 0x00, 0x00, 0x00, 0x06, 0x00,
  0x08, 0x00, 0x04, 0x00, 0x06, 0x00, 0x00, 0x00, 0x04, 0x00, 0x00, 0x00,
  0x00, 0x00, 0x00, 0x00, 0x0c, 0x00, 0x18, 0x00, 0x14, 0x00, 0x10, 0x00,
  0x0c, 0x00, 0x04, 0x00, 0x0c, 0x00, 0x00, 0x00, 0x18, 0xb9, 0x60, 0x05,
  0x37, 0xbd, 0x5f, 0x12, 0x02, 0x00, 0x00, 0x00, 0x02, 0x00, 0x00, 0x00,
  0x04, 0x00, 0x00, 0x00, 0x06, 0x00, 0x00, 0x00, 0x32, 0x2e, 0x31, 0x38,
  0x2e, 0x30, 0x00, 0x00, 0xea, 0xf4, 0xff, 0xff, 0x04, 0x00, 0x00, 0x00,
  0x10, 0x00, 0x00, 0x00, 0x31, 0x2e, 0x35, 0x2e, 0x30, 0x00, 0x00, 0x00,
  0x00, 0x00, 0x00, 0x00, 0x00, 0x00, 0x00, 0x00, 0x00, 0xf0, 0xff, 0xff,
  0x04, 0xf0, 0xff, 0xff, 0x08, 0xf0, 0xff, 0xff, 0x0c, 0xf0, 0xff, 0xff,
  0x16, 0xf5, 0xff, 0xff, 0x04, 0x00, 0x00, 0x00, 0x80, 0x00, 0x00, 0x00,
  0xde, 0x8e, 0x66, 0x3e, 0xe8, 0x74, 0xc5, 0x9a, 0x18, 0xd3, 0x46, 0xbe,
  0xd3, 0xa3, 0x29, 0xbe, 0xf4, 0x14, 0x74, 0xbe, 0x90, 0x0b, 0x92, 0xbe,
  0x3a, 0x18, 0x6a, 0x3a, 0x39, 0x17, 0x16, 0x3e, 0x8e, 0x1e, 0x78, 0xbe,
  0xc2, 0x6f, 0x0a, 0x3e, 0xe3, 0x2b, 0x75, 0xbe, 0x78, 0x0b, 0x5e, 0x3e,
  0x0a, 0xe3, 0x9c, 0x3d, 0xf2, 0x79, 0xfd, 0x3d, 0x30, 0xd6, 0x90, 0xbd,
  0x7c, 0xff, 0xce, 0x3d, 0x01, 0x24, 0x99, 0xbe, 0x5e, 0x43, 0x52, 0x3c,
  0x80, 0x99, 0x3d, 0x3e, 0x81, 0xcc, 0x01, 0xbe, 0x86, 0x8d, 0x33, 0x3e,
  0x2a, 0xc4, 0x72, 0xbd, 0x79, 0x2d, 0x7e, 0x3e, 0xfa, 0x1f, 0xac, 0xbd,
  0x51, 0x84, 0x12, 0xbe, 0xdf, 0x0c, 0x21, 0xbd, 0xef, 0x47, 0x62, 0xbe,
  0xbb, 0xed, 0x76, 0x3e, 0x33, 0x73, 0xe6, 0x3d, 0xb4, 0x00, 0x66, 0xbb,
  0x29, 0xf3, 0xfe, 0xbd, 0x66, 0xfa, 0xc2, 0x3d, 0xa2, 0xf5, 0xff, 0xff,
  0x04, 0x00, 0x00, 0x00, 0x80, 0x00, 0x00, 0x00, 0xa8, 0x11, 0x77, 0xbd,
  0xc5, 0x7f, 0x08, 0xbc, 0x66, 0xe6, 0x79, 0xbd, 0x12, 0xf9, 0x39, 0xbd,
  0x9c, 0xdc, 0x94, 0xbd, 0xda, 0x95, 0xaa, 0xbd, 0x10, 0x72, 0xb3, 0xbc,
  0x7e, 0x17, 0x34, 0xbd, 0x66, 0x34, 0x9c, 0xbd, 0x63, 0x19, 0x1f, 0x3e,
  0x29, 0x62, 0x8c, 0xbd, 0xd4, 0x59, 0x84, 0xbd, 0xf5, 0xa9, 0xeb, 0xbc,
  0x91, 0x60, 0xfb, 0xbc, 0x62, 0x3a, 0xae, 0x3d, 0x86, 0x5b, 0x1e, 0x3d,
  0xae, 0x85, 0xbb, 0xbd, 0x67, 0x86, 0x96, 0x3b, 0x6d, 0xa3, 0x69, 0xbd,
  0x52, 0x9d, 0x09, 0x3e, 0x7a, 0x06, 0xa3, 0xbc, 0x58, 0x76, 0x54, 0xbc,
  0xc5, 0x14, 0xe2, 0xbd, 0xcb, 0x5a, 0xd0, 0x3d, 0x6b, 0x26, 0x23, 0xbd,
  0xfe, 0x60, 0x31, 0x3d, 0x4e, 0x16, 0x8a, 0xbd, 0x88, 0xe2, 0x8d, 0xbd,
  0xbd, 0xe4, 0xf9, 0xbc, 0x93, 0x20, 0x8d, 0x3b, 0x3a, 0x19, 0x1e, 0x3e,
  0x35, 0x5a, 0x41, 0x3d, 0x2e, 0xf6, 0xff, 0xff, 0x04, 0x00, 0x00, 0x00,
  0x40, 0x00, 0x00, 0x00, 0x64, 0x42, 0xdd, 0x3d, 0xea, 0x0a, 0x37, 0x3d,
  0x45, 0xe4, 0xb4, 0xbc, 0x65, 0x6a, 0xbf, 0x3d, 0xf1, 0x1b, 0xc4, 0xbc,
  0x89, 0x3a, 0x9b, 0x3d, 0xe4, 0xc8, 0xc3, 0x3d, 0x3f, 0xdb, 0xb5, 0x3c,
  0x4b, 0x08, 0x0c, 0xbd, 0x31, 0x1b, 0x00, 0xbc, 0xc5, 0x5d, 0xc2, 0x3d,
  0xcc, 0x6c, 0xdd, 0xbc, 0xba, 0x58, 0xbe, 0xbb, 0x95, 0x1f, 0xe5, 0x3d,
  0x45, 0x8d, 0xad, 0x3d, 0x8e, 0x3b, 0x5e, 0x3c, 0x7a, 0xf6, 0xff, 0xff,
  0x04, 0x00, 0x00, 0x00, 0x0c, 0x00, 0x00, 0x00, 0x12, 0x17, 0x94, 0x3c,
  0xeb, 0xde, 0x84, 0x3c, 0xc6, 0xeb, 0xeb, 0xbc, 0x92, 0xf6, 0xff, 0xff,
  0x04, 0x00, 0x00, 0x00, 0x00, 0x08, 0x00, 0x00, 0x55, 0x63, 0x2e, 0x3d,
  0x37, 0x65, 0x6a, 0x08, 0x0d, 0xa7, 0x32, 0xbd, 0x06, 0x50, 0x30, 0xbd,
  0x43, 0xb8, 0x60, 0xbd, 0xef, 0xe5, 0x90, 0xbd, 0x2f, 0x16, 0x23, 0xa3,
  0x25, 0xce, 0x32, 0x3d, 0x8c, 0x91, 0x5f, 0xbd, 0x06, 0xcb, 0xd3, 0x3c,
  0x80, 0xcc, 0x5e, 0xbd, 0x34, 0x9e, 0x71, 0x3d, 0x76, 0x72, 0xa0, 0x3c,
  0x7b, 0x80, 0x07, 0x3d, 0x6d, 0x32, 0x95, 0xbc, 0xbe, 0x29, 0x6f, 0x3c,
  0x32, 0xdb, 0x7b, 0xbd, 0x5a, 0x3b, 0x25, 0xbb, 0x5e, 0xf4, 0x64, 0x3d,
  0x59, 0x3b, 0x1c, 0xbc, 0x9f, 0x23, 0x21, 0x3d, 0xf3, 0x12, 0xa3, 0xbc,
  0xb7, 0x40, 0x9a, 0x3d, 0xca, 0xfb, 0xdb, 0xbc, 0xef, 0xc0, 0x04, 0xbd,
  0x05, 0x49, 0x00, 0xbb, 0x0e, 0x8a, 0x68, 0xbd, 0x77, 0xe5, 0x92, 0x3d,
  0x58, 0xdc, 0xd9, 0x3c, 0xcc, 0x7f, 0x6a, 0xb8, 0xc8, 0x4a, 0x44, 0xbc,
  0x0e, 0x25, 0x23, 0x38, 0x48, 0x99, 0x8f, 0x3d, 0xdf, 0x27, 0x27, 0x20,
  0xb8, 0xda, 0x65, 0xb9, 0xa4, 0x52, 0x0b, 0x3c, 0x2f, 0x49, 0xb5, 0x3b,
  0x40, 0x98, 0x1c, 0x3c, 0xc7, 0xd8, 0x2c, 0x95, 0x05, 0x15, 0x2a, 0x3d,
  0xda, 0xfe, 0xfa, 0xbb, 0x66, 0x38, 0x7b, 0x3d, 0x26, 0x2e, 0xfb, 0x3b,
  0x6a, 0xdf, 0x47, 0x3d, 0x70, 0x0d, 0x55, 0x3c, 0xc9, 0x72, 0x12, 0x3d,
  0x9d, 0xc0, 0x9f, 0xbc, 0x5a, 0xd8, 0x1b, 0x3d, 0xeb, 0x92, 0xaa, 0xbb,
  0x6f, 0x07, 0x7b, 0x3b, 0x9d, 0x11, 0x35, 0x3d, 0x93, 0x3c, 0x72, 0xbd,
  0x17, 0x9e, 0x4f, 0x3d, 0x35, 0x87, 0x20, 0x3a, 0x4c, 0x05, 0x25, 0x3c,
  0xb3, 0x1e, 0xb1, 0xbc, 0xdd, 0xfa, 0x2d, 0xb9, 0xc0, 0x90, 0x46, 0xbc,
  0xbf, 0x41, 0x1b, 0x3c, 0xa0, 0x55, 0x20, 0x3d, 0xa0, 0x31, 0xd8, 0x3c,
  0x79, 0x66, 0xba, 0xb9, 0x15, 0x2a, 0x17, 0xbd, 0xc4, 0x3e, 0x74, 0x3d,
  0x09, 0x99, 0xd3, 0x3c, 0x99, 0xf1, 0xe5, 0xa6, 0x22, 0x22, 0xec, 0x06,
  0x40, 0xab, 0x5e, 0xae, 0x87, 0xcd, 0x6b, 0x07, 0xf5, 0xb1, 0x0d, 0xab,
  0x96, 0xdb, 0x22, 0xac, 0xde, 0x1b, 0x96, 0x3c, 0x47, 0xd5, 0xce, 0x2e,
  0x80, 0xb0, 0x90, 0x3c, 0xf8, 0x49, 0xac, 0xa8, 0x6c, 0xc7, 0xf3, 0x3c,
  0xad, 0x3d, 0x44, 0x3c, 0x90, 0x81, 0xc4, 0x3c, 0x73, 0x3d, 0x85, 0xbb,
  0xee, 0xc3, 0xa0, 0x3c, 0xdd, 0x1b, 0x79, 0x08, 0x74, 0xd7, 0x86, 0x3b,
  0xf4, 0xca, 0xe2, 0x3c, 0xd0, 0x5c, 0x09, 0xbc, 0x5f, 0x9c, 0xde, 0x3c,
  0x80, 0x9d, 0x56, 0xa0, 0x5b, 0x39, 0x2d, 0x3d, 0xa0, 0xb4, 0x0b, 0xbc,
  0x07, 0xe0, 0xe6, 0x06, 0x5b, 0xe8, 0x33, 0xbb, 0xa6, 0xe0, 0x2d, 0xa2,
  0xf5, 0x96, 0x0a, 0x3d, 0xa0, 0xf8, 0x63, 0x3c, 0x4b, 0xe1, 0xc4, 0xb9,
  0xaa, 0xd0, 0x2a, 0xbc, 0xfe, 0x8d, 0x5a, 0x3c, 0xa8, 0xb9, 0x63, 0xbd,
  0xc2, 0x7d, 0x8f, 0x0c, 0x46, 0x38, 0x2d, 0x3d, 0x76, 0x5c, 0x07, 0x3d,
  0x18, 0x36, 0x2c, 0x3d, 0x0a, 0x5e, 0x7e, 0x3d, 0xae, 0xff, 0xaf, 0x87,
  0x8e, 0xe4, 0x25, 0xbd, 0xe8, 0xe8, 0x6d, 0x3d, 0x17, 0x48, 0x22, 0xbd,
  0xf6, 0x13, 0x59, 0x3d, 0xa3, 0xf7, 0x4f, 0xbd, 0xd6, 0x72, 0x94, 0xbc,
  0x24, 0xa1, 0xfe, 0xbc, 0x95, 0xef, 0xbb, 0x3c, 0x5e, 0xa3, 0xb0, 0xbc,
  0x41, 0xb8, 0x8c, 0x3d, 0x31, 0x13, 0x42, 0xbb, 0xfb, 0xeb, 0x2d, 0xbd,
  0xe3, 0x81, 0x53, 0x3d, 0x62, 0x01, 0x2f, 0xbd, 0x77, 0x5c, 0x48, 0x3c,
  0xb1, 0x46, 0x34, 0xbd, 0x29, 0x49, 0x0d, 0x3d, 0xa2, 0x6b, 0x05, 0x3d,
  0xbb, 0x59, 0x2e, 0x3c, 0x69, 0xd8, 0x29, 0x3d, 0xed, 0x57, 0x6f, 0xbd,
  0x0c, 0x0a, 0xf9, 0xbc, 0x59, 0xe9, 0xc1, 0x38, 0x5b, 0x37, 0x3c, 0x3d,
  0x5b, 0x3a, 0xce, 0xbc, 0x96, 0x79, 0x92, 0x3b, 0x28, 0xbe, 0xc0, 0x86,
  0xf8, 0xa8, 0xb7, 0x3d, 0x11, 0x35, 0xa3, 0x3d, 0x4b, 0xf0, 0xe4, 0x3d,
  0x43, 0x7b, 0x0d, 0x3e, 0x9d, 0x06, 0xa3, 0x0b, 0xd8, 0xd9, 0x9b, 0x3b,
  0x30, 0x6f, 0xec, 0x3d, 0x27, 0x1e, 0x75, 0xbd, 0x97, 0x4d, 0xf4, 0x3d,
  0xf5, 0xa2, 0x5e, 0xbb, 0xfe, 0x25, 0x17, 0x3a, 0xdf, 0xa1, 0x92, 0xbb,
  0x40, 0x12, 0x0a, 0x3d, 0xa6, 0xda, 0xcb, 0xb9, 0x80, 0xa9, 0x1b, 0x3e,
  0x5f, 0x3e, 0x20, 0xba, 0xe4, 0xee, 0xda, 0xba, 0x5d, 0xf4, 0x7a, 0x3d,
  0xab, 0xe9, 0x2a, 0xbb, 0xa1, 0x6c, 0xf2, 0x3c, 0x72, 0x20, 0x09, 0xbc,
  0x01, 0x15, 0x44, 0x3d, 0x84, 0x1b, 0x94, 0x3d, 0x21, 0xcd, 0x6a, 0x3c,
  0x1b, 0x96, 0xd4, 0x3d, 0xe4, 0x14, 0x7b, 0x3c, 0x4b, 0xd0, 0x8c, 0x39,
  0x23, 0xc9, 0xaa, 0x3a, 0x21, 0xb0, 0x09, 0x3d, 0xc5, 0xea, 0x54, 0xbc,
  0xbe, 0x36, 0x3a, 0xbd, 0x95, 0xb9, 0xd0, 0x87, 0xc6, 0x64, 0x3d, 0x3d,
  0x95, 0xe2, 0x24, 0x3d, 0xed, 0x6c, 0x46, 0x3d, 0x9f, 0x47, 0x74, 0x3d,
  0xf2, 0x1d, 0xc4, 0xa3, 0xc5, 0x31, 0xf0, 0xbc, 0xdf, 0xdb, 0x73, 0x3d,
  0xb2, 0x8d, 0x9c, 0xbc, 0x1d, 0xee, 0x63, 0x3d, 0xcc, 0x1c, 0x2c, 0xbd,
  0xbc, 0xd2, 0x82, 0xbc, 0x27, 0xa3, 0xc5, 0xbc, 0xf0, 0xef, 0x84, 0x3c,
  0x5e, 0x88, 0x58, 0xbc, 0x26, 0xc8, 0x97, 0x3d, 0x6a, 0xb1, 0x02, 0xba,
  0xfe, 0x80, 0x09, 0xbd, 0xa6, 0x19, 0x07, 0x3d, 0x60, 0xbb, 0xeb, 0xbc,
  0x41, 0x36, 0x9d, 0x3c, 0x3c, 0x30, 0x23, 0xbd, 0x43, 0x3b, 0xdc, 0x3c,
  0x93, 0xae, 0x0b, 0x3d, 0x66, 0xd6, 0x07, 0x3c, 0xe1, 0xd8, 0x3c, 0x3d,
  0x78, 0x54, 0x40, 0xbd, 0x38, 0x6a, 0xcf, 0xbc, 0xbf, 0x91, 0x36, 0x3a,
  0xaf, 0x7f, 0x22, 0x3d, 0x7d, 0xa8, 0x15, 0xbc, 0xda, 0x52, 0x4a, 0x3d,
  0x27, 0x8b, 0x35, 0x07, 0xa8, 0xab, 0x72, 0xbd, 0x07, 0x53, 0x81, 0xbd,
  0xed, 0x16, 0x9f, 0xbd, 0x61, 0x58, 0xbb, 0xbd, 0x2c, 0xe8, 0x9c, 0xb0,
  0xfb, 0xa1, 0x0f, 0x3d, 0x85, 0x9c, 0xb5, 0xbd, 0xad, 0xa4, 0x17, 0x3d,
  0xd2, 0x83, 0xaf, 0xbd, 0xfc, 0x0a, 0x97, 0x3d, 0xff, 0x64, 0xfd, 0x3c,
  0xa8, 0x49, 0xa8, 0xba, 0x4e, 0x86, 0xe0, 0xbb, 0x66, 0x4e, 0xba, 0xbc,
  0xff, 0x0e, 0xc3, 0xbd, 0xc6, 0x5a, 0xe4, 0xbb, 0x47, 0x66, 0x72, 0x3d,
  0x44, 0xe8, 0x42, 0x3d, 0x8d, 0xaf, 0x04, 0xbd, 0x56, 0x70, 0xd9, 0xbc,
  0x29, 0x41, 0xb4, 0x3d, 0x52, 0x83, 0xe1, 0xba, 0x77, 0x98, 0x13, 0xbd,
  0xa9, 0x40, 0x3b, 0x3c, 0xc0, 0x29, 0xb3, 0xbd, 0xc5, 0xbf, 0x10, 0x3d,
  0x0d, 0xa5, 0xb9, 0x3c, 0xc2, 0x16, 0x70, 0x38, 0x71, 0xf0, 0x79, 0x3c,
  0x19, 0xb7, 0x24, 0x3c, 0x4c, 0x62, 0x99, 0x3d, 0xa4, 0xe0, 0x70, 0x08,
  0xb1, 0x1d, 0x2f, 0xbb, 0x1e, 0x89, 0x69, 0xbb, 0x24, 0x77, 0xb5, 0xbb,
  0xcf, 0xbb, 0x9c, 0xba, 0x16, 0x6c, 0x61, 0x2e, 0x4d, 0x27, 0x32, 0x3d,
  0xd9, 0xc0, 0x77, 0xbb, 0xd8, 0xe7, 0x11, 0x3d, 0x83, 0xfe, 0x05, 0xbc,
  0x86, 0x2f, 0x73, 0x3d, 0x58, 0x82, 0x65, 0x3c, 0x0f, 0x65, 0x08, 0x3d,
  0x69, 0x35, 0xcd, 0xbc, 0xaf, 0x05, 0x0b, 0x3d, 0x39, 0x3d, 0xe9, 0xbb,
  0x7d, 0x35, 0x6d, 0x39, 0x89, 0x85, 0xff, 0x3c, 0xb4, 0x1e, 0x41, 0xbd,
  0xa5, 0x08, 0x4f, 0x3d, 0x42, 0x1a, 0xd5, 0xba, 0x75, 0x69, 0x0d, 0x3d,
  0xc7, 0xc4, 0xd4, 0xbc, 0xfe, 0x9a, 0xaa, 0xbb, 0x3f, 0x83, 0x88, 0xbc,
  0x98, 0x3f, 0x26, 0xbb, 0xa9, 0xd6, 0x5f, 0x3d, 0xdb, 0xfa, 0x11, 0x3d,
  0x46, 0x44, 0x12, 0xbb, 0xaa, 0x80, 0x52, 0xbd, 0xd0, 0xc8, 0x0b, 0x3d,
  0xca, 0xd1, 0x13, 0xba, 0x98, 0x64, 0x85, 0x86, 0x33, 0x85, 0xbf, 0x3d,
  0xb6, 0xf9, 0x96, 0x3d, 0xa3, 0x46, 0xf0, 0x3d, 0x55, 0x33, 0x15, 0x3e,
  0x28, 0x17, 0x0e, 0x18, 0x6d, 0x00, 0x42, 0xba, 0xda, 0xca, 0xcb, 0x3d,
  0xcf, 0xce, 0x65, 0xbd, 0xf8, 0xba, 0xe1, 0x3d, 0x24, 0x4a, 0xd3, 0xbb,
  0x16, 0xae, 0xec, 0xb8, 0x21, 0x08, 0xe5, 0x3a, 0x48, 0xee, 0x0a, 0x3d,
  0xdd, 0x01, 0x1a, 0xbb, 0x4b, 0xe3, 0x05, 0x3e, 0x0f, 0x48, 0xdc, 0xb9,
  0x77, 0x60, 0xd8, 0xbb, 0x07, 0x60, 0x78, 0x3d, 0x00, 0x69, 0x1b, 0x3c,
  0x18, 0xf0, 0xd4, 0x3c, 0xd0, 0x06, 0x3c, 0x3c, 0x93, 0xa2, 0x2a, 0x3d,
  0x47, 0x06, 0x8e, 0x3d, 0xe6, 0x2d, 0x70, 0x3c, 0x50, 0xb6, 0xdf, 0x3d,
  0x66, 0x47, 0x57, 0xb7, 0xb7, 0x10, 0x31, 0xb9, 0x1a, 0x6c, 0xc8, 0x3a,
  0x71, 0x5a, 0x63, 0x3d, 0x3a, 0xe7, 0x02, 0xbc, 0xc5, 0x56, 0x8a, 0xa2,
  0x5f, 0x4e, 0x28, 0x08, 0xe0, 0x21, 0x5d, 0xa9, 0x4a, 0xc9, 0x85, 0xac,
  0x51, 0xa9, 0xb0, 0xab, 0xf9, 0xf5, 0x2d, 0x09, 0x5d, 0xb0, 0x0c, 0x22,
  0xd7, 0xec, 0x91, 0xa1, 0x8e, 0x47, 0x92, 0x86, 0x80, 0xe5, 0x3e, 0x88,
  0xd0, 0x61, 0x4d, 0x07, 0x51, 0xc0, 0x09, 0xa5, 0x3f, 0x21, 0xe0, 0x0e,
  0xbc, 0x7f, 0xaa, 0xa2, 0x55, 0x5f, 0xbc, 0x1f, 0xbe, 0xa6, 0x6b, 0xae,
  0x7f, 0xc8, 0x27, 0x11, 0x79, 0xa4, 0x7d, 0x14, 0x86, 0x3b, 0x0f, 0x07,
  0xe0, 0x4c, 0x60, 0x08, 0x32, 0x12, 0xfd, 0x87, 0x26, 0x46, 0x1d, 0x88,
  0xfb, 0x08, 0x4e, 0x0c, 0x50, 0x8a, 0xb4, 0x97, 0x65, 0x26, 0x4a, 0x08,
  0x80, 0x62, 0x02, 0x08, 0xbb, 0xd5, 0x27, 0x1a, 0x4c, 0xa4, 0x91, 0x19,
  0xf8, 0xd2, 0x1f, 0x87, 0xed, 0x3b, 0xd5, 0x07, 0x79, 0x94, 0xd5, 0x06,
  0x90, 0x83, 0x51, 0x85, 0x11, 0xae, 0x10, 0x3d, 0x68, 0xce, 0x32, 0x8f,
  0x4c, 0x8d, 0x02, 0xbd, 0xa8, 0x41, 0x07, 0xbd, 0x28, 0x1f, 0x11, 0xbd,
  0x05, 0x19, 0x30, 0xbd, 0xeb, 0xa7, 0xc6, 0x9c, 0x6a, 0xc8, 0x24, 0x3d,
  0x77, 0xf7, 0x2e, 0xbd, 0x9b, 0x46, 0x5e, 0x3d, 0x3a, 0x4c, 0x2b, 0xbd,
  0xf2, 0x3a, 0x23, 0x3d, 0x89, 0xf7, 0xaf, 0x3c, 0x11, 0xdd, 0xe4, 0x3c,
  0xe6, 0x78, 0x96, 0xbc, 0x63, 0x05, 0x21, 0x3d, 0xa8, 0x70, 0x43, 0xbd,
  0x73, 0xed, 0x91, 0x3a, 0x3a, 0x36, 0x9f, 0x3d, 0xa8, 0x22, 0xca, 0xbc,
  0x34, 0x86, 0x92, 0x3d, 0xd4, 0xb5, 0x8e, 0xbc, 0xd2, 0x4c, 0x5c, 0x3d,
  0x2b, 0x6a, 0xd7, 0xbc, 0x00, 0x35, 0xda, 0xbc, 0x08, 0x5f, 0xbd, 0xbb,
  0x7f, 0x8d, 0xf0, 0xbc, 0xf4, 0x1a, 0xd8, 0x3d, 0x1d, 0x81, 0x1f, 0x3d,
  0x42, 0xd1, 0x85, 0xba, 0xce, 0x05, 0xdb, 0xbc, 0x26, 0x35, 0xc2, 0x3c,
  0xf7, 0xb9, 0x6c, 0x3d, 0xd7, 0x32, 0x33, 0xae, 0x97, 0x91, 0xf6, 0xa4,
  0x00, 0xc7, 0x5e, 0x2c, 0x49, 0xdf, 0xef, 0x0d, 0xa6, 0x79, 0x13, 0xa4,
  0xe8, 0x8d, 0x53, 0x95, 0x48, 0x76, 0x45, 0x3d, 0x12, 0xd2, 0xef, 0xad,
  0x81, 0x50, 0x8a, 0x3c, 0xcf, 0x24, 0x8f, 0x87, 0x36, 0x7b, 0x6d, 0x3d,
  0x6a, 0x5c, 0xca, 0x3c, 0xbb, 0x9d, 0x1e, 0x3d, 0xd0, 0xf6, 0x6f, 0xbc,
  0x2d, 0x3a, 0x34, 0x3d, 0x33, 0xf4, 0x0d, 0xac, 0x7f, 0xef, 0x76, 0x3b,
  0x66, 0x70, 0x5d, 0x3d, 0x49, 0xc5, 0xc9, 0xbc, 0x96, 0x24, 0x36, 0x3d,
  0x9d, 0xe4, 0x3d, 0x08, 0x81, 0x5f, 0x3a, 0x3d, 0xd2, 0x24, 0xc2, 0xbc,
  0x51, 0xd2, 0x07, 0xac, 0x04, 0x2a, 0x05, 0xbc, 0xa8, 0x8e, 0x85, 0x08,
  0x92, 0x0c, 0x53, 0x3d, 0x32, 0xe4, 0x03, 0x3d, 0xb6, 0xeb, 0x82, 0xba,
  0xea, 0x6e, 0x0e, 0xbd, 0xa5, 0xd1, 0xcc, 0x3c, 0x50, 0xeb, 0xe4, 0x3d,
  0x44, 0x79, 0x52, 0x08, 0xec, 0x9f, 0x9b, 0xae, 0xe2, 0x15, 0xaa, 0x92,
  0x29, 0x50, 0x9e, 0x25, 0xbe, 0xa2, 0x1b, 0xa9, 0x62, 0x16, 0xe5, 0xa0,
  0x27, 0xd6, 0x14, 0x3d, 0x0d, 0x7e, 0x33, 0xad, 0xec, 0xe4, 0xde, 0x3c,
  0x7d, 0xe0, 0x4d, 0xa3, 0x6b, 0xfa, 0xa7, 0x3d, 0xb8, 0xb1, 0x9a, 0x3c,
  0x48, 0x01, 0x56, 0x3d, 0xd9, 0xb4, 0x8d, 0xbc, 0x19, 0x8b, 0x53, 0x3d,
  0x54, 0x01, 0x28, 0x35, 0xaa, 0x7c, 0xc8, 0x3b, 0x78, 0x8b, 0x63, 0x3d,
  0x65, 0xcf, 0x16, 0xbd, 0x4f, 0x93, 0xdd, 0x3d, 0x2d, 0xba, 0x81, 0x0b,
  0x90, 0xb9, 0xcb, 0x3d, 0xfa, 0x39, 0xf4, 0xbc, 0x8c, 0x8c, 0xe7, 0x33,
  0x68, 0x7f, 0x19, 0xbc, 0xdf, 0x9f, 0x9d, 0xa1, 0xdf, 0x8c, 0x08, 0x3d,
  0x2d, 0x07, 0xf1, 0x3c, 0x7e, 0xe7, 0xc9, 0xba, 0xe2, 0xe6, 0x23, 0xbd,
  0xb0, 0xe3, 0x2e, 0x3d, 0x65, 0xcf, 0x77, 0x3d, 0x68, 0x41, 0x07, 0x8f,
  0xa9, 0x29, 0x55, 0xbd, 0xa6, 0x7c, 0x39, 0xbd, 0xaa, 0xda, 0x70, 0xbd,
  0xa8, 0x3e, 0x99, 0xbd, 0x73, 0x06, 0x87, 0xaf, 0x7d, 0x69, 0x2b, 0x3d,
  0xeb, 0x96, 0x77, 0xbd, 0x9d, 0xe5, 0x0a, 0x3d, 0x3c, 0xb5, 0x7e, 0xbd,
  0x9b, 0xca, 0x7a, 0x3d, 0x43, 0x8f, 0xc0, 0x3c, 0x69, 0x90, 0x0f, 0x3d,
  0x29, 0xaf, 0xb5, 0xbc, 0xf3, 0xa9, 0x9d, 0x3c, 0x41, 0x3a, 0x8c, 0xbd,
  0xa4, 0x84, 0xd5, 0xba, 0xe8, 0x4d, 0x27, 0x3d, 0xd6, 0xb1, 0xc1, 0xbb,
  0xe3, 0xfe, 0xfe, 0x3a, 0xbe, 0xbe, 0xa5, 0xbc, 0xf3, 0x30, 0xaf, 0x3d,
  0xd5, 0x8d, 0xb4, 0xbc, 0x1c, 0x7e, 0x2d, 0xbd, 0xf7, 0x4f, 0x03, 0xbb,
  0x4d, 0x64, 0x6a, 0xbd, 0x0f, 0x37, 0x89, 0x3d, 0x49, 0x1e, 0xe4, 0x3c,
  0x0d, 0xa6, 0xb6, 0xb9, 0xd1, 0x3f, 0x62, 0xbc, 0xd7, 0x33, 0x0d, 0xbc,
  0x1a, 0x8a, 0x73, 0xbd, 0x04, 0xdc, 0xb7, 0x86, 0x71, 0xb5, 0xab, 0x3d,
  0xa6, 0x7d, 0x92, 0x3d, 0x1e, 0x75, 0xd6, 0x3d, 0xcf, 0x60, 0x08, 0x3e,
  0xed, 0x2b, 0x0e, 0x2b, 0xd2, 0x55, 0x2b, 0xbd, 0x47, 0xfd, 0xec, 0x3d,
  0xed, 0x67, 0x98, 0xbc, 0xb3, 0x34, 0xd5, 0x3d, 0x17, 0x41, 0x7c, 0xbd,
  0xe6, 0x68, 0xcf, 0xbc, 0xe3, 0x31, 0xfd, 0xbc, 0xe9, 0xce, 0x28, 0x3d,
  0x49, 0x99, 0xc5, 0xbb, 0xb4, 0x4a, 0x01, 0x3e, 0x25, 0x42, 0xa0, 0xba,
  0xc2, 0x5a, 0x36, 0xbd, 0x0c, 0x25, 0x55, 0x3d, 0x73, 0xca, 0x9d, 0xbc,
  0x68, 0x3a, 0xd1, 0x3c, 0xd2, 0x64, 0x62, 0xbd, 0xd7, 0x01, 0x60, 0x3d,
  0x70, 0xaa, 0x80, 0x3d, 0xb7, 0xd2, 0x9c, 0x3c, 0x6e, 0x69, 0xb6, 0x3d,
  0x5a, 0xa9, 0x6e, 0xbd, 0xa3, 0x70, 0x1f, 0xbd, 0xdd, 0x16, 0x03, 0x3b,
  0xdb, 0x1d, 0xa3, 0x3d, 0x44, 0x6e, 0x0a, 0x3a, 0xe9, 0x07, 0x7b, 0x3d,
  0xc6, 0x49, 0x89, 0xa3, 0x3f, 0x01, 0x2a, 0xbb, 0x33, 0x39, 0xc1, 0xba,
  0xfa, 0x3b, 0x87, 0xba, 0x14, 0x2e, 0x91, 0xb9, 0x8c, 0xed, 0xc1, 0xa5,
  0x3e, 0x2e, 0x63, 0x3d, 0x05, 0xe9, 0x1d, 0xbb, 0xc2, 0xb3, 0xd0, 0x3b,
  0x2e, 0xa8, 0xfb, 0xbb, 0x14, 0x2c, 0x5a, 0x3d, 0x27, 0x18, 0x89, 0x3c,
  0xdc, 0xc6, 0x61, 0x3d, 0xc6, 0xd6, 0xe4, 0xbc, 0xdb, 0x60, 0x20, 0x3d,
  0x96, 0xb9, 0xc3, 0xbb, 0x51, 0x66, 0x88, 0x3b, 0xa9, 0x93, 0x48, 0x3c,
  0x83, 0x14, 0x23, 0xbd, 0x24, 0x0a, 0xa0, 0x3c, 0x5b, 0x24, 0x11, 0xbb,
  0x94, 0xa8, 0xe3, 0x3c, 0x1b, 0x71, 0xd3, 0xbc, 0x2f, 0xe3, 0x0d, 0xbb,
  0x00, 0x2f, 0x71, 0xbc, 0x96, 0x9b, 0xa7, 0xba, 0x56, 0xfc, 0xc6, 0x3d,
  0x49, 0xf2, 0x19, 0x3d, 0xd6, 0xb3, 0x98, 0xba, 0xef, 0x3b, 0x59, 0xbd,
  0x7d, 0x3f, 0xa7, 0x3c, 0x9e, 0xfe, 0xff, 0xff, 0x04, 0x00, 0x00, 0x00,
  0xc0, 0x00, 0x00, 0x00, 0x3c, 0xb1, 0x6c, 0x3e, 0xb1, 0x84, 0x13, 0xbe,
  0xe8, 0x6e, 0x0b, 0x3f, 0xa0, 0x8c, 0xfa, 0xbd, 0x4e, 0x67, 0xa7, 0x3e,
  0xcc, 0xf7, 0xbc, 0x3e, 0xc2, 0x94, 0xbb, 0x3e, 0x58, 0xd3, 0xbe, 0xbe,
  0xc4, 0x67, 0x94, 0xbe, 0xcd, 0xc0, 0x52, 0xbe, 0x4b, 0xf0, 0xa8, 0xbe,
  0x56, 0x03, 0x8c, 0x3e, 0x4f, 0xe1, 0x1d, 0xbe, 0x5a, 0xa5, 0x14, 0xbc,
  0x4e, 0x3e, 0xaa, 0x3e, 0x6b, 0x62, 0x14, 0xbf, 0x9c, 0x98, 0x07, 0xbe,
  0x80, 0x3b, 0xe7, 0x3e, 0xb7, 0x79, 0xb9, 0xbd, 0x76, 0xf0, 0xab, 0xbe,
  0xf2, 0xfd, 0x1d, 0x3f, 0x6b, 0xdc, 0xbe, 0x3e, 0x4e, 0x8f, 0x3b, 0xbf,
  0xf3, 0x97, 0xff, 0xbb, 0xf9, 0x27, 0x08, 0x3f, 0x11, 0xd4, 0x12, 0xbe,
  0x0f, 0xd6, 0xa0, 0xbe, 0x64, 0x24, 0x07, 0xbf, 0x36, 0xfa, 0xc1, 0xbe,
  0x70, 0x19, 0xea, 0xbe, 0x87, 0x7b, 0xd2, 0x3e, 0x74, 0x86, 0x9f, 0xbe,
  0x2d, 0xd0, 0x34, 0x3f, 0xde, 0xfa, 0x2a, 0x3f, 0x2c, 0x5c, 0x78, 0x3e,
  0x4a, 0xb7, 0x70, 0xbf, 0x35, 0x81, 0x2e, 0xbf, 0xc2, 0xad, 0x9f, 0xbe,
  0x7e, 0x98, 0xe9, 0x3e, 0x82, 0x95, 0xe5, 0x3e, 0x29, 0xc9, 0x1b, 0xbf,
  0x1c, 0xb3, 0xbd, 0xbd, 0x43, 0xc5, 0xe0, 0x3e, 0x57, 0x28, 0xb4, 0x3e,
  0xed, 0xd8, 0x20, 0x3f, 0x63, 0x57, 0xe8, 0x3e, 0x97, 0xf5, 0x45, 0xbf,
  0x07, 0xde, 0xc7, 0x3e, 0x64, 0xfa, 0xff, 0xff, 0x68, 0xfa, 0xff, 0xff,
  0x0f, 0x00, 0x00, 0x00, 0x4d, 0x4c, 0x49, 0x52, 0x20, 0x43, 0x6f, 0x6e,
  0x76, 0x65, 0x72, 0x74, 0x65, 0x64, 0x2e, 0x00, 0x01, 0x00, 0x00, 0x00,
  0x14, 0x00, 0x00, 0x00, 0x00, 0x00, 0x0e, 0x00, 0x18, 0x00, 0x14, 0x00,
  0x10, 0x00, 0x0c, 0x00, 0x08, 0x00, 0x04, 0x00, 0x0e, 0x00, 0x00, 0x00,
  0x14, 0x00, 0x00, 0x00, 0x1c, 0x00, 0x00, 0x00, 0x24, 0x01, 0x00, 0x00,
  0x28, 0x01, 0x00, 0x00, 0x2c, 0x01, 0x00, 0x00, 0x04, 0x00, 0x00, 0x00,
  0x6d, 0x61, 0x69, 0x6e, 0x00, 0x00, 0x00, 0x00, 0x04, 0x00, 0x00, 0x00,
  0xcc, 0x00, 0x00, 0x00, 0x84, 0x00, 0x00, 0x00, 0x50, 0x00, 0x00, 0x00,
  0x14, 0x00, 0x00, 0x00, 0x00, 0x00, 0x0e, 0x00, 0x1a, 0x00, 0x14, 0x00,
  0x10, 0x00, 0x0c, 0x00, 0x0b, 0x00, 0x04, 0x00, 0x0e, 0x00, 0x00, 0x00,
  0x1c, 0x00, 0x00, 0x00, 0x00, 0x00, 0x00, 0x09, 0x1c, 0x00, 0x00, 0x00,
  0x20, 0x00, 0x00, 0x00, 0x01, 0x00, 0x00, 0x00, 0x00, 0x00, 0x06, 0x00,
  0x08, 0x00, 0x04, 0x00, 0x06, 0x00, 0x00, 0x00, 0x00, 0x00, 0x80, 0x3f,
  0x01, 0x00, 0x00, 0x00, 0x0a, 0x00, 0x00, 0x00, 0x01, 0x00, 0x00, 0x00,
  0x09, 0x00, 0x00, 0x00, 0x9a, 0xff, 0xff, 0xff, 0x10, 0x00, 0x00, 0x00,
  0x00, 0x00, 0x00, 0x08, 0x0c, 0x00, 0x00, 0x00, 0x10, 0x00, 0x00, 0x00,
  0x2c, 0xfb, 0xff, 0xff, 0x01, 0x00, 0x00, 0x00, 0x09, 0x00, 0x00, 0x00,
  0x03, 0x00, 0x00, 0x00, 0x08, 0x00, 0x00, 0x00, 0x01, 0x00, 0x00, 0x00,
  0x03, 0x00, 0x00, 0x00, 0xca, 0xff, 0xff, 0xff, 0x10, 0x00, 0x00, 0x00,
  0x00, 0x00, 0x00, 0x08, 0x10, 0x00, 0x00, 0x00, 0x14, 0x00, 0x00, 0x00,
  0xba, 0xff, 0xff, 0xff, 0x00, 0x00, 0x00, 0x01, 0x01, 0x00, 0x00, 0x00,
  0x08, 0x00, 0x00, 0x00, 0x03, 0x00, 0x00, 0x00, 0x07, 0x00, 0x00, 0x00,
  0x02, 0x00, 0x00, 0x00, 0x04, 0x00, 0x00, 0x00, 0x00, 0x00, 0x0e, 0x00,
  0x16, 0x00, 0x00, 0x00, 0x10, 0x00, 0x0c, 0x00, 0x0b, 0x00, 0x04, 0x00,
  0x0e, 0x00, 0x00, 0x00, 0x18, 0x00, 0x00, 0x00, 0x00, 0x00, 0x00, 0x08,
  0x18, 0x00, 0x00, 0x00, 0x1c, 0x00, 0x00, 0x00, 0x00, 0x00, 0x06, 0x00,
  0x08, 0x00, 0x07, 0x00, 0x06, 0x00, 0x00, 0x00, 0x00, 0x00, 0x00, 0x01,
  0x01, 0x00, 0x00, 0x00, 0x07, 0x00, 0x00, 0x00, 0x03, 0x00, 0x00, 0x00,
  0x00, 0x00, 0x00, 0x00, 0x06, 0x00, 0x00, 0x00, 0x05, 0x00, 0x00, 0x00,
  0x01, 0x00, 0x00, 0x00, 0x0a, 0x00, 0x00, 0x00, 0x01, 0x00, 0x00, 0x00,
  0x00, 0x00, 0x00, 0x00, 0x0b, 0x00, 0x00, 0x00, 0xfc, 0x03, 0x00, 0x00,
  0xa4, 0x03, 0x00, 0x00, 0x4c, 0x03, 0x00, 0x00, 0x10, 0x03, 0x00, 0x00,
  0xb4, 0x02, 0x00, 0x00, 0x5c, 0x02, 0x00, 0x00, 0x10, 0x02, 0x00, 0x00,
  0x7c, 0x01, 0x00, 0x00, 0xe0, 0x00, 0x00, 0x00, 0x60, 0x00, 0x00, 0x00,
  0x04, 0x00, 0x00, 0x00, 0x46, 0xfc, 0xff, 0xff, 0x00, 0x00, 0x00, 0x01,
  0x14, 0x00, 0x00, 0x00, 0x1c, 0x00, 0x00, 0x00, 0x1c, 0x00, 0x00, 0x00,
  0x0b, 0x00, 0x00, 0x00, 0x34, 0x00, 0x00, 0x00, 0x02, 0x00, 0x00, 0x00,
  0xff, 0xff, 0xff, 0xff, 0x03, 0x00, 0x00, 0x00, 0x30, 0xfc, 0xff, 0xff,
  0x1b, 0x00, 0x00, 0x00, 0x53, 0x74, 0x61, 0x74, 0x65, 0x66, 0x75, 0x6c,
  0x50, 0x61, 0x72, 0x74, 0x69, 0x74, 0x69, 0x6f, 0x6e, 0x65, 0x64, 0x43,
  0x61, 0x6c, 0x6c, 0x5f, 0x31, 0x3a, 0x30, 0x00, 0x02, 0x00, 0x00, 0x00,
  0x01, 0x00, 0x00, 0x00, 0x03, 0x00, 0x00, 0x00, 0x9e, 0xfc, 0xff, 0xff,
  0x00, 0x00, 0x00, 0x01, 0x14, 0x00, 0x00, 0x00, 0x1c, 0x00, 0x00, 0x00,
  0x1c, 0x00, 0x00, 0x00, 0x0a, 0x00, 0x00, 0x00, 0x58, 0x00, 0x00, 0x00,
  0x02, 0x00, 0x00, 0x00, 0xff, 0xff, 0xff, 0xff, 0x03, 0x00, 0x00, 0x00,
  0x88, 0xfc, 0xff, 0xff, 0x3c, 0x00, 0x00, 0x00, 0x73, 0x65, 0x71, 0x75,
  0x65, 0x6e, 0x74, 0x69, 0x61, 0x6c, 0x5f, 0x31, 0x2f, 0x64, 0x65, 0x6e,
  0x73, 0x65, 0x5f, 0x32, 0x5f, 0x31, 0x2f, 0x4d, 0x61, 0x74, 0x4d, 0x75,
  0x6c, 0x3b, 0x73, 0x65, 0x71, 0x75, 0x65, 0x6e, 0x74, 0x69, 0x61, 0x6c,
  0x5f, 0x31, 0x2f, 0x64, 0x65, 0x6e, 0x73, 0x65, 0x5f, 0x32, 0x5f, 0x31,
  0x2f, 0x42, 0x69, 0x61, 0x73, 0x41, 0x64, 0x64, 0x00, 0x00, 0x00, 0x00,
  0x02, 0x00, 0x00, 0x00, 0x01, 0x00, 0x00, 0x00, 0x03, 0x00, 0x00, 0x00,
  0x1a, 0xfd, 0xff, 0xff, 0x00, 0x00, 0x00, 0x01, 0x14, 0x00, 0x00, 0x00,
  0x1c, 0x00, 0x00, 0x00, 0x1c, 0x00, 0x00, 0x00, 0x09, 0x00, 0x00, 0x00,
  0x74, 0x00, 0x00, 0x00, 0x02, 0x00, 0x00, 0x00, 0xff, 0xff, 0xff, 0xff,
  0x10, 0x00, 0x00, 0x00, 0x04, 0xfd, 0xff, 0xff, 0x58, 0x00, 0x00, 0x00,
  0x73, 0x65, 0x71, 0x75, 0x65, 0x6e, 0x74, 0x69, 0x61, 0x6c, 0x5f, 0x31,
  0x2f, 0x64, 0x65, 0x6e, 0x73, 0x65, 0x5f, 0x31, 0x5f, 0x32, 0x2f, 0x4d,
  0x61, 0x74, 0x4d, 0x75, 0x6c, 0x3b, 0x73, 0x65, 0x71, 0x75, 0x65, 0x6e,
  0x74, 0x69, 0x61, 0x6c, 0x5f, 0x31, 0x2f, 0x64, 0x65, 0x6e, 0x73, 0x65,
  0x5f, 0x31, 0x5f, 0x32, 0x2f, 0x52, 0x65, 0x6c, 0x75, 0x3b, 0x73, 0x65,
  0x71, 0x75, 0x65, 0x6e, 0x74, 0x69, 0x61, 0x6c, 0x5f, 0x31, 0x2f, 0x64,
  0x65, 0x6e, 0x73, 0x65, 0x5f, 0x31, 0x5f, 0x32, 0x2f, 0x42, 0x69, 0x61,
  0x73, 0x41, 0x64, 0x64, 0x00, 0x00, 0x00, 0x00, 0x02, 0x00, 0x00, 0x00,
  0x01, 0x00, 0x00, 0x00, 0x10, 0x00, 0x00, 0x00, 0xb2, 0xfd, 0xff, 0xff,
  0x00, 0x00, 0x00, 0x01, 0x14, 0x00, 0x00, 0x00, 0x1c, 0x00, 0x00, 0x00,
  0x1c, 0x00, 0x00, 0x00, 0x08, 0x00, 0x00, 0x00, 0x6c, 0x00, 0x00, 0x00,
  0x02, 0x00, 0x00, 0x00, 0xff, 0xff, 0xff, 0xff, 0x20, 0x00, 0x00, 0x00,
  0x9c, 0xfd, 0xff, 0xff, 0x52, 0x00, 0x00, 0x00, 0x73, 0x65, 0x71, 0x75,
  0x65, 0x6e, 0x74, 0x69, 0x61, 0x6c, 0x5f, 0x31, 0x2f, 0x64, 0x65, 0x6e,
  0x73, 0x65, 0x5f, 0x31, 0x2f, 0x4d, 0x61, 0x74, 0x4d, 0x75, 0x6c, 0x3b,
  0x73, 0x65, 0x71, 0x75, 0x65, 0x6e, 0x74, 0x69, 0x61, 0x6c, 0x5f, 0x31,
  0x2f, 0x64, 0x65, 0x6e, 0x73, 0x65, 0x5f, 0x31, 0x2f, 0x52, 0x65, 0x6c,
  0x75, 0x3b, 0x73, 0x65, 0x71, 0x75, 0x65, 0x6e, 0x74, 0x69, 0x61, 0x6c,
  0x5f, 0x31, 0x2f, 0x64, 0x65, 0x6e, 0x73, 0x65, 0x5f, 0x31, 0x2f, 0x42,
  0x69, 0x61, 0x73, 0x41, 0x64, 0x64, 0x00, 0x00, 0x02, 0x00, 0x00, 0x00,
  0x01, 0x00, 0x00, 0x00, 0x20, 0x00, 0x00, 0x00, 0x96, 0xfe, 0xff, 0xff,
  0x00, 0x00, 0x00, 0x01, 0x10, 0x00, 0x00, 0x00, 0x10, 0x00, 0x00, 0x00,
  0x07, 0x00, 0x00, 0x00, 0x28, 0x00, 0x00, 0x00, 0x1c, 0xfe, 0xff, 0xff,
  0x1b, 0x00, 0x00, 0x00, 0x73, 0x65, 0x71, 0x75, 0x65, 0x6e, 0x74, 0x69,
  0x61, 0x6c, 0x5f, 0x31, 0x2f, 0x64, 0x65, 0x6e, 0x73, 0x65, 0x5f, 0x31,
  0x2f, 0x4d, 0x61, 0x74, 0x4d, 0x75, 0x6c, 0x00, 0x02, 0x00, 0x00, 0x00,
  0x20, 0x00, 0x00, 0x00, 0x01, 0x00, 0x00, 0x00, 0xde, 0xfe, 0xff, 0xff,
  0x00, 0x00, 0x00, 0x01, 0x10, 0x00, 0x00, 0x00, 0x10, 0x00, 0x00, 0x00,
  0x06, 0x00, 0x00, 0x00, 0x38, 0x00, 0x00, 0x00, 0x64, 0xfe, 0xff, 0xff,
  0x2b, 0x00, 0x00, 0x00, 0x73, 0x65, 0x71, 0x75, 0x65, 0x6e, 0x74, 0x69,
  0x61, 0x6c, 0x5f, 0x31, 0x2f, 0x64, 0x65, 0x6e, 0x73, 0x65, 0x5f, 0x31,
  0x2f, 0x42, 0x69, 0x61, 0x73, 0x41, 0x64, 0x64, 0x2f, 0x52, 0x65, 0x61,
  0x64, 0x56, 0x61, 0x72, 0x69, 0x61, 0x62, 0x6c, 0x65, 0x4f, 0x70, 0x00,
  0x01, 0x00, 0x00, 0x00, 0x20, 0x00, 0x00, 0x00, 0x32, 0xff, 0xff, 0xff,
  0x00, 0x00, 0x00, 0x01, 0x10, 0x00, 0x00, 0x00, 0x10, 0x00, 0x00, 0x00,
  0x05, 0x00, 0x00, 0x00, 0x3c, 0x00, 0x00, 0x00, 0xb8, 0xfe, 0xff, 0xff,
  0x2d, 0x00, 0x00, 0x00, 0x73, 0x65, 0x71, 0x75, 0x65, 0x6e, 0x74, 0x69,
  0x61, 0x6c, 0x5f, 0x31, 0x2f, 0x64, 0x65, 0x6e, 0x73, 0x65, 0x5f, 0x31,
  0x5f, 0x32, 0x2f, 0x42, 0x69, 0x61, 0x73, 0x41, 0x64, 0x64, 0x2f, 0x52,
  0x65, 0x61, 0x64, 0x56, 0x61, 0x72, 0x69, 0x61, 0x62, 0x6c, 0x65, 0x4f,
  0x70, 0x00, 0x00, 0x00, 0x01, 0x00, 0x00, 0x00, 0x10, 0x00, 0x00, 0x00,
  0x8a, 0xff, 0xff, 0xff, 0x00, 0x00, 0x00, 0x01, 0x10, 0x00, 0x00, 0x00,
  0x10, 0x00, 0x00, 0x00, 0x04, 0x00, 0x00, 0x00, 0x1c, 0x00, 0x00, 0x00,
  0x10, 0xff, 0xff, 0xff, 0x0f, 0x00, 0x00, 0x00, 0x61, 0x72, 0x69, 0x74,
  0x68, 0x2e, 0x63, 0x6f, 0x6e, 0x73, 0x74, 0x61, 0x6e, 0x74, 0x32, 0x00,
  0x01, 0x00, 0x00, 0x00, 0x03, 0x00, 0x00, 0x00, 0xc2, 0xff, 0xff, 0xff,
  0x00, 0x00, 0x00, 0x01, 0x10, 0x00, 0x00, 0x00, 0x10, 0x00, 0x00, 0x00,
  0x03, 0x00, 0x00, 0x00, 0x1c, 0x00, 0x00, 0x00, 0x48, 0xff, 0xff, 0xff,
  0x0f, 0x00, 0x00, 0x00, 0x61, 0x72, 0x69, 0x74, 0x68, 0x2e, 0x63, 0x6f,
  0x6e, 0x73, 0x74, 0x61, 0x6e, 0x74, 0x31, 0x00, 0x02, 0x00, 0x00, 0x00,
  0x10, 0x00, 0x00, 0x00, 0x20, 0x00, 0x00, 0x00, 0x00, 0x00, 0x16, 0x00,
  0x18, 0x00, 0x14, 0x00, 0x00, 0x00, 0x10, 0x00, 0x0c, 0x00, 0x08, 0x00,
  0x00, 0x00, 0x00, 0x00, 0x00, 0x00, 0x07, 0x00, 0x16, 0x00, 0x00, 0x00,
  0x00, 0x00, 0x00, 0x01, 0x10, 0x00, 0x00, 0x00, 0x10, 0x00, 0x00, 0x00,
  0x02, 0x00, 0x00, 0x00, 0x1c, 0x00, 0x00, 0x00, 0x9c, 0xff, 0xff, 0xff,
  0x0e, 0x00, 0x00, 0x00, 0x61, 0x72, 0x69, 0x74, 0x68, 0x2e, 0x63, 0x6f,
  0x6e, 0x73, 0x74, 0x61, 0x6e, 0x74, 0x00, 0x00, 0x02, 0x00, 0x00, 0x00,
  0x03, 0x00, 0x00, 0x00, 0x10, 0x00, 0x00, 0x00, 0x00, 0x00, 0x16, 0x00,
  0x1c, 0x00, 0x18, 0x00, 0x00, 0x00, 0x14, 0x00, 0x10, 0x00, 0x0c, 0x00,
  0x00, 0x00, 0x00, 0x00, 0x08, 0x00, 0x07, 0x00, 0x16, 0x00, 0x00, 0x00,
  0x00, 0x00, 0x00, 0x01, 0x14, 0x00, 0x00, 0x00, 0x20, 0x00, 0x00, 0x00,
  0x20, 0x00, 0x00, 0x00, 0x01, 0x00, 0x00, 0x00, 0x3c, 0x00, 0x00, 0x00,
  0x02, 0x00, 0x00, 0x00, 0xff, 0xff, 0xff, 0xff, 0x01, 0x00, 0x00, 0x00,
  0x04, 0x00, 0x04, 0x00, 0x04, 0x00, 0x00, 0x00, 0x1e, 0x00, 0x00, 0x00,
  0x73, 0x65, 0x72, 0x76, 0x69, 0x6e, 0x67, 0x5f, 0x64, 0x65, 0x66, 0x61,
  0x75, 0x6c, 0x74, 0x5f, 0x6b, 0x65, 0x72, 0x61, 0x73, 0x5f, 0x74, 0x65,
  0x6e, 0x73, 0x6f, 0x72, 0x3a, 0x30, 0x00, 0x00, 0x02, 0x00, 0x00, 0x00,
  0x01, 0x00, 0x00, 0x00, 0x01, 0x00, 0x00, 0x00, 0x02, 0x00, 0x00, 0x00,
  0x20, 0x00, 0x00, 0x00, 0x04, 0x00, 0x00, 0x00, 0xf4, 0xff, 0xff, 0xff,
  0x19, 0x00, 0x00, 0x00, 0x00, 0x00, 0x00, 0x19, 0x0c, 0x00, 0x0c, 0x00,
  0x0b, 0x00, 0x00, 0x00, 0x00, 0x00, 0x04, 0x00, 0x0c, 0x00, 0x00, 0x00,
  0x09, 0x00, 0x00, 0x00, 0x00, 0x00, 0x00, 0x09
};

