const unsigned char model[] = {
  0x1c, 0x00, 0x00, 0x00, 0x54, 0x46, 0x4c, 0x33, 0x14, 0x00, 0x20, 0x00,
  0x1c, 0x00, 0x18, 0x00, 0x14, 0x00, 0x10, 0x00, 0x0c, 0x00, 0x00, 0x00,
  0x08, 0x00, 0x04, 0x00, 0x14, 0x00, 0x00, 0x00, 0x1c, 0x00, 0x00, 0x00,
  0x98, 0x00, 0x00, 0x00, 0xf0, 0x00, 0x00, 0x00, 0x1c, 0x05, 0x00, 0x00,
  0x2c, 0x05, 0x00, 0x00, 0xe0, 0x0a, 0x00, 0x00, 0x03, 0x00, 0x00, 0x00,
  0x01, 0x00, 0x00, 0x00, 0x10, 0x00, 0x00, 0x00, 0x00, 0x00, 0x0a, 0x00,
  0x10, 0x00, 0x0c, 0x00, 0x08, 0x00, 0x04, 0x00, 0x0a, 0x00, 0x00, 0x00,
  0x0c, 0x00, 0x00, 0x00, 0x1c, 0x00, 0x00, 0x00, 0x3c, 0x00, 0x00, 0x00,
  0x0f, 0x00, 0x00, 0x00, 0x73, 0x65, 0x72, 0x76, 0x69, 0x6e, 0x67, 0x5f,
  0x64, 0x65, 0x66, 0x61, 0x75, 0x6c, 0x74, 0x00, 0x01, 0x00, 0x00, 0x00,
  0x04, 0x00, 0x00, 0x00, 0x90, 0xff, 0xff, 0xff, 0x0a, 0x00, 0x00, 0x00,
  0x04, 0x00, 0x00, 0x00, 0x08, 0x00, 0x00, 0x00, 0x6f, 0x75, 0x74, 0x70,
  0x75, 0x74, 0x5f, 0x30, 0x00, 0x00, 0x00, 0x00, 0x01, 0x00, 0x00, 0x00,
  0x04, 0x00, 0x00, 0x00, 0xca, 0xfa, 0xff, 0xff, 0x04, 0x00, 0x00, 0x00,
  0x0c, 0x00, 0x00, 0x00, 0x6b, 0x65, 0x72, 0x61, 0x73, 0x5f, 0x74, 0x65,
  0x6e, 0x73, 0x6f, 0x72, 0x00, 0x00, 0x00, 0x00, 0x02, 0x00, 0x00, 0x00,
  0x34, 0x00, 0x00, 0x00, 0x04, 0x00, 0x00, 0x00, 0xdc, 0xff, 0xff, 0xff,
  0x0d, 0x00, 0x00, 0x00, 0x04, 0x00, 0x00, 0x00, 0x13, 0x00, 0x00, 0x00,
  0x43, 0x4f, 0x4e, 0x56, 0x45, 0x52, 0x53, 0x49, 0x4f, 0x4e, 0x5f, 0x4d,
  0x45, 0x54, 0x41, 0x44, 0x41, 0x54, 0x41, 0x00, 0x08, 0x00, 0x0c, 0x00,
  0x08, 0x00, 0x04, 0x00, 0x08, 0x00, 0x00, 0x00, 0x0c, 0x00, 0x00, 0x00,
  0x04, 0x00, 0x00, 0x00, 0x13, 0x00, 0x00, 0x00, 0x6d, 0x69, 0x6e, 0x5f,
  0x72, 0x75, 0x6e, 0x74, 0x69, 0x6d, 0x65, 0x5f, 0x76, 0x65, 0x72, 0x73,
  0x69, 0x6f, 0x6e, 0x00, 0x0e, 0x00, 0x00, 0x00, 0x28, 0x04, 0x00, 0x00,
  0x20, 0x04, 0x00, 0x00, 0xb0, 0x03, 0x00, 0x00, 0xa0, 0x01, 0x00, 0x00,
  0x84, 0x01, 0x00, 0x00, 0x54, 0x01, 0x00, 0x00, 0x04, 0x01, 0x00, 0x00,
  0xb4, 0x00, 0x00, 0x00, 0xac, 0x00, 0x00, 0x00, 0xa4, 0x00, 0x00, 0x00,
  0x9c, 0x00, 0x00, 0x00, 0x94, 0x00, 0x00, 0x00, 0x74, 0x00, 0x00, 0x00,
  0x04, 0x00, 0x00, 0x00, 0x7e, 0xfb, 0xff, 0xff, 0x04, 0x00, 0x00, 0x00,
  0x60, 0x00, 0x00, 0x00, 0x10, 0x00, 0x00, 0x00, 0x00, 0x00, 0x00, 0x00,
  0x08, 0x00, 0x0e, 0x00, 0x08, 0x00, 0x04, 0x00, 0x08, 0x00, 0x00, 0x00,
  0x10, 0x00, 0x00, 0x00, 0x24, 0x00, 0x00, 0x00, 0x00, 0x00, 0x06, 0x00,
  0x08, 0x00, 0x04, 0x00, 0x06, 0x00, 0x00, 0x00, 0x04, 0x00, 0x00, 0x00,
  0x00, 0x00, 0x00, 0x00, 0x0c, 0x00, 0x18, 0x00, 0x14, 0x00, 0x10, 0x00,
  0x0c, 0x00, 0x04, 0x00, 0x0c, 0x00, 0x00, 0x00, 0xf7, 0xce, 0x85, 0x4f,
  0x65, 0xe9, 0x32, 0xe6, 0x02, 0x00, 0x00, 0x00, 0x02, 0x00, 0x00, 0x00,
  0x04, 0x00, 0x00, 0x00, 0x06, 0x00, 0x00, 0x00, 0x32, 0x2e, 0x31, 0x38,
  0x2e, 0x30, 0x00, 0x00, 0xea, 0xfb, 0xff, 0xff, 0x04, 0x00, 0x00, 0x00,
  0x10, 0x00, 0x00, 0x00, 0x31, 0x2e, 0x35, 0x2e, 0x30, 0x00, 0x00, 0x00,
  0x00, 0x00, 0x00, 0x00, 0x00, 0x00, 0x00, 0x00, 0x00, 0xf7, 0xff, 0xff,
  0x04, 0xf7, 0xff, 0xff, 0x08, 0xf7, 0xff, 0xff, 0x0c, 0xf7, 0xff, 0xff,
  0x16, 0xfc, 0xff, 0xff, 0x04, 0x00, 0x00, 0x00, 0x40, 0x00, 0x00, 0x00,
  0x07, 0x61, 0x2c, 0xbf, 0xc4, 0x22, 0x99, 0x3e, 0xb3, 0x60, 0x10, 0xbf,
  0x6e, 0xe1, 0xeb, 0x3e, 0xb7, 0x81, 0xbd, 0x3e, 0x51, 0x8d, 0xc1, 0x3e,
  0x45, 0xfa, 0xf7, 0xbe, 0x64, 0x1a, 0x13, 0x3f, 0xd6, 0x2b, 0xec, 0xbe,
  0xfa, 0xc8, 0x8e, 0xbe, 0x06, 0x82, 0x0d, 0x3f, 0x57, 0xa7, 0x98, 0x3e,
  0x6f, 0xcf, 0x21, 0x3f, 0x59, 0xb1, 0x05, 0x3f, 0x8e, 0x65, 0x83, 0x3e,
  0x7b, 0x3b, 0x23, 0x3f, 0x62, 0xfc, 0xff, 0xff, 0x04, 0x00, 0x00, 0x00,
  0x40, 0x00, 0x00, 0x00, 0x98, 0xe2, 0x56, 0x3e, 0x00, 0x9e, 0xfa, 0xbd,
  0xc3, 0x02, 0x1b, 0xbe, 0x7d, 0x3c, 0xdf, 0xbd, 0x81, 0x54, 0xb4, 0x3e,
  0x62, 0x10, 0xcb, 0x3d, 0x39, 0xcf, 0xec, 0xbd, 0x13, 0x8d, 0xcc, 0x3d,
  0xa3, 0x68, 0xd2, 0xbd, 0x2a, 0xda, 0x17, 0x3e, 0x8b, 0x18, 0x37, 0xbe,
  0xfe, 0x40, 0xc6, 0xbd, 0x98, 0x58, 0x43, 0xbe, 0xcf, 0x26, 0x12, 0xbe,
  0x70, 0x9a, 0x6a, 0xbd, 0x6b, 0x9a, 0x31, 0xbe, 0xae, 0xfc, 0xff, 0xff,
  0x04, 0x00, 0x00, 0x00, 0x20, 0x00, 0x00, 0x00, 0xa6, 0x6d, 0x51, 0x3d,
  0x58, 0x57, 0xd0, 0x3d, 0x3e, 0xea, 0x20, 0x3e, 0x88, 0xab, 0xc6, 0xbd,
  0xe4, 0x04, 0x2e, 0xbe, 0xbd, 0x7b, 0x9f, 0xbd, 0x95, 0x50, 0x82, 0xbc,
  0x00, 0x00, 0x00, 0x00, 0xda, 0xfc, 0xff, 0xff, 0x04, 0x00, 0x00, 0x00,
  0x0c, 0x00, 0x00, 0x00, 0x84, 0xff, 0x9c, 0xbc, 0x7e, 0x38, 0xa6, 0xbd,
  0x21, 0x5b, 0xd1, 0x3d, 0xf2, 0xfc, 0xff, 0xff, 0x04, 0x00, 0x00, 0x00,
  0x00, 0x02, 0x00, 0x00, 0xcc, 0xc9, 0xf0, 0x3d, 0x1a, 0x53, 0xfb, 0x3d,
  0xd3, 0x75, 0xbd, 0x3e, 0x78, 0x50, 0x1e, 0xbf, 0x5f, 0x37, 0x15, 0x3f,
  0x45, 0x5e, 0xf7, 0xbc, 0xc1, 0x8d, 0x01, 0x3f, 0x75, 0x80, 0xdf, 0x3e,
  0x5b, 0x1a, 0xf3, 0xbd, 0x71, 0xb8, 0xc9, 0x3e, 0x46, 0xa8, 0x36, 0xbe,
  0x81, 0xe4, 0x9e, 0xbe, 0xad, 0x31, 0x41, 0xbe, 0x96, 0xfd, 0xbb, 0xbe,
  0x0b, 0xea, 0x1f, 0xbf, 0x14, 0xb7, 0xf1, 0xbe, 0x0a, 0x76, 0x00, 0xbe,
  0x10, 0xae, 0xdd, 0xbb, 0x67, 0x3e, 0xa7, 0x3e, 0x50, 0x16, 0x88, 0xbd,
  0x4c, 0x0b, 0x4e, 0xbf, 0xb4, 0x80, 0xc5, 0xbe, 0x7d, 0x1a, 0xf6, 0x3d,
  0x28, 0x2b, 0x72, 0xbe, 0xa4, 0xaa, 0x19, 0x3f, 0xf2, 0x3c, 0xae, 0xbc,
  0xba, 0xb5, 0xa0, 0xbe, 0xa8, 0x6b, 0x47, 0xbe, 0xa0, 0x5b, 0x4c, 0x3e,
  0xdd, 0x02, 0xab, 0xbe, 0x78, 0x72, 0x53, 0xbe, 0xf0, 0x22, 0xd5, 0xbd,
  0xd5, 0x2b, 0x09, 0x3f, 0x70, 0x15, 0x14, 0x3f, 0x08, 0x41, 0x17, 0xbf,
  0xbf, 0x12, 0x1b, 0x3e, 0xe9, 0x0a, 0x00, 0x3e, 0xff, 0xe2, 0xa9, 0xbe,
  0x33, 0xdd, 0x6b, 0xbe, 0xdb, 0xa2, 0x89, 0xbe, 0x94, 0xd0, 0xf4, 0xbe,
  0xea, 0x3b, 0x16, 0x3f, 0x8e, 0x27, 0xbb, 0x3e, 0xa2, 0x8c, 0xd7, 0x3e,
  0x37, 0x4f, 0x03, 0x3f, 0x68, 0x61, 0xa5, 0x3e, 0xec, 0xb0, 0x91, 0x3d,
  0x70, 0x60, 0x8a, 0x3e, 0xa3, 0xe3, 0x15, 0x3f, 0xae, 0x6d, 0x78, 0x3e,
  0x3b, 0xe7, 0x03, 0x3f, 0x08, 0xb6, 0x42, 0xbe, 0xc6, 0x6f, 0x5a, 0xbf,
  0xac, 0x7d, 0x3e, 0xbe, 0x75, 0x1b, 0x06, 0x3f, 0x52, 0xf8, 0x07, 0x3e,
  0x36, 0x98, 0x5a, 0x3e, 0x13, 0x1e, 0x65, 0xbd, 0x8c, 0xa2, 0x86, 0xbe,
  0x00, 0xd6, 0xaa, 0xbe, 0x77, 0x06, 0x0d, 0x3d, 0x4f, 0xea, 0x1f, 0xbe,
  0x58, 0xee, 0x8d, 0xbe, 0x40, 0x08, 0xde, 0xbe, 0x40, 0xdd, 0x0f, 0x3e,
  0x62, 0xe5, 0x61, 0xbe, 0x40, 0xaf, 0xe6, 0xbc, 0x7c, 0x87, 0xd9, 0x3e,
  0xca, 0x73, 0x1a, 0xbe, 0x5d, 0x49, 0x66, 0xbe, 0x88, 0x76, 0x41, 0xbe,
  0xd3, 0xc7, 0x43, 0xbd, 0xa8, 0xff, 0x71, 0xbe, 0xb0, 0x3a, 0xad, 0x3d,
  0xdf, 0x7e, 0xe3, 0x3d, 0x35, 0x49, 0xb2, 0x3e, 0x4b, 0xd8, 0x8a, 0xbd,
  0x44, 0x62, 0x8e, 0xbd, 0xab, 0x64, 0xb2, 0x3d, 0x4f, 0x8b, 0x9c, 0x3e,
  0x16, 0x14, 0xb9, 0x3e, 0x6b, 0x76, 0xcf, 0xbe, 0x2b, 0xcc, 0x97, 0x3e,
  0x97, 0xad, 0x07, 0xbe, 0x88, 0x10, 0x01, 0x3b, 0x28, 0xbc, 0xf0, 0xbd,
  0x42, 0x26, 0x8e, 0x3e, 0x37, 0x94, 0xea, 0xbe, 0xad, 0x25, 0xd0, 0xbe,
  0x40, 0x22, 0xa3, 0xbe, 0x54, 0x39, 0x89, 0x3d, 0x00, 0xd7, 0x64, 0x3d,
  0x50, 0x20, 0xbe, 0xbe, 0x22, 0x7b, 0x3c, 0xbc, 0x08, 0x16, 0xfa, 0xbe,
  0xfc, 0xa6, 0xde, 0x3e, 0x60, 0x72, 0x00, 0x3d, 0xf7, 0x02, 0xcc, 0x3e,
  0x44, 0x43, 0xc9, 0xbe, 0x43, 0xd0, 0x9a, 0xbe, 0x4a, 0x7c, 0x6c, 0xbe,
  0xcc, 0xbb, 0xcc, 0xbe, 0x28, 0x34, 0x13, 0x3e, 0x28, 0xee, 0xc0, 0xbd,
  0xbe, 0x06, 0x92, 0x3d, 0x40, 0x94, 0x34, 0x3d, 0x60, 0x79, 0xb1, 0x3e,
  0x1e, 0x4e, 0x9c, 0xbe, 0x0d, 0xdc, 0x02, 0xbe, 0x2f, 0x3c, 0x8d, 0x3e,
  0x60, 0xe6, 0xae, 0xbd, 0x5d, 0x1f, 0x07, 0xbd, 0xa0, 0x05, 0x6e, 0xbe,
  0x58, 0xdf, 0xba, 0xbe, 0xf0, 0x2e, 0x10, 0x3e, 0x14, 0x6e, 0xbe, 0x3e,
  0xf0, 0x4d, 0xc4, 0xbe, 0x98, 0x99, 0x88, 0xbe, 0x00, 0xb9, 0xf2, 0xbd,
  0x40, 0xdd, 0x24, 0xbd, 0xc0, 0xa0, 0x49, 0xbd, 0xc0, 0x51, 0x6b, 0x3d,
  0xd0, 0x0f, 0x1e, 0x3e, 0x90, 0x91, 0x7b, 0x3e, 0x40, 0xc8, 0xce, 0x3e,
  0xe8, 0x93, 0xfd, 0xbe, 0x40, 0xf5, 0x9d, 0x3e, 0x40, 0x6d, 0x2b, 0xbd,
  0xfe, 0xfe, 0xff, 0xff, 0x04, 0x00, 0x00, 0x00, 0x60, 0x00, 0x00, 0x00,
  0x2d, 0x60, 0xa4, 0x3e, 0xf6, 0x76, 0x53, 0xbe, 0xb1, 0x03, 0x97, 0xbe,
  0xd4, 0x9a, 0x07, 0x3e, 0x9b, 0xcb, 0x1f, 0x3f, 0x4f, 0xd6, 0x20, 0xbf,
  0x31, 0x3a, 0x8c, 0xbd, 0x78, 0x5e, 0x9a, 0x3d, 0xc5, 0x76, 0x4d, 0xbd,
  0x41, 0x05, 0x2f, 0x3f, 0x28, 0xc9, 0x29, 0xbf, 0xc5, 0x52, 0x05, 0x3f,
  0x4b, 0x64, 0x41, 0x3f, 0xdc, 0x14, 0x95, 0xbe, 0xf2, 0xe3, 0x21, 0x3f,
  0xbc, 0xcd, 0x41, 0xbe, 0x96, 0x95, 0x6a, 0xbf, 0x96, 0x7b, 0x86, 0x3d,
  0xda, 0xcb, 0xdd, 0x3e, 0x0f, 0xc1, 0x75, 0xbf, 0x5c, 0x50, 0x41, 0xbe,
  0xbd, 0xa5, 0xd2, 0xbe, 0x30, 0x84, 0x22, 0xbd, 0xcc, 0xcf, 0x09, 0xbe,
  0x64, 0xfa, 0xff, 0xff, 0x68, 0xfa, 0xff, 0xff, 0x0f, 0x00, 0x00, 0x00,
  0x4d, 0x4c, 0x49, 0x52, 0x20, 0x43, 0x6f, 0x6e, 0x76, 0x65, 0x72, 0x74,
  0x65, 0x64, 0x2e, 0x00, 0x01, 0x00, 0x00, 0x00, 0x14, 0x00, 0x00, 0x00,
  0x00, 0x00, 0x0e, 0x00, 0x18, 0x00, 0x14, 0x00, 0x10, 0x00, 0x0c, 0x00,
  0x08, 0x00, 0x04, 0x00, 0x0e, 0x00, 0x00, 0x00, 0x14, 0x00, 0x00, 0x00,
  0x1c, 0x00, 0x00, 0x00, 0x24, 0x01, 0x00, 0x00, 0x28, 0x01, 0x00, 0x00,
  0x2c, 0x01, 0x00, 0x00, 0x04, 0x00, 0x00, 0x00, 0x6d, 0x61, 0x69, 0x6e,
  0x00, 0x00, 0x00, 0x00, 0x04, 0x00, 0x00, 0x00, 0xcc, 0x00, 0x00, 0x00,
  0x84, 0x00, 0x00, 0x00, 0x50, 0x00, 0x00, 0x00, 0x14, 0x00, 0x00, 0x00,
  0x00, 0x00, 0x0e, 0x00, 0x1a, 0x00, 0x14, 0x00, 0x10, 0x00, 0x0c, 0x00,
  0x0b, 0x00, 0x04, 0x00, 0x0e, 0x00, 0x00, 0x00, 0x1c, 0x00, 0x00, 0x00,
  0x00, 0x00, 0x00, 0x09, 0x1c, 0x00, 0x00, 0x00, 0x20, 0x00, 0x00, 0x00,
  0x01, 0x00, 0x00, 0x00, 0x00, 0x00, 0x06, 0x00, 0x08, 0x00, 0x04, 0x00,
  0x06, 0x00, 0x00, 0x00, 0x00, 0x00, 0x80, 0x3f, 0x01, 0x00, 0x00, 0x00,
  0x0a, 0x00, 0x00, 0x00, 0x01, 0x00, 0x00, 0x00, 0x09, 0x00, 0x00, 0x00,
  0x9a, 0xff, 0xff, 0xff, 0x10, 0x00, 0x00, 0x00, 0x00, 0x00, 0x00, 0x08,
  0x0c, 0x00, 0x00, 0x00, 0x10, 0x00, 0x00, 0x00, 0x2c, 0xfb, 0xff, 0xff,
  0x01, 0x00, 0x00, 0x00, 0x09, 0x00, 0x00, 0x00, 0x03, 0x00, 0x00, 0x00,
  0x08, 0x00, 0x00, 0x00, 0x01, 0x00, 0x00, 0x00, 0x03, 0x00, 0x00, 0x00,
  0xca, 0xff, 0xff, 0xff, 0x10, 0x00, 0x00, 0x00, 0x00, 0x00, 0x00, 0x08,
  0x10, 0x00, 0x00, 0x00, 0x14, 0x00, 0x00, 0x00, 0xba, 0xff, 0xff, 0xff,
  0x00, 0x00, 0x00, 0x01, 0x01, 0x00, 0x00, 0x00, 0x08, 0x00, 0x00, 0x00,
  0x03, 0x00, 0x00, 0x00, 0x07, 0x00, 0x00, 0x00, 0x02, 0x00, 0x00, 0x00,
  0x04, 0x00, 0x00, 0x00, 0x00, 0x00, 0x0e, 0x00, 0x16, 0x00, 0x00, 0x00,
  0x10, 0x00, 0x0c, 0x00, 0x0b, 0x00, 0x04, 0x00, 0x0e, 0x00, 0x00, 0x00,
  0x18, 0x00, 0x00, 0x00, 0x00, 0x00, 0x00, 0x08, 0x18, 0x00, 0x00, 0x00,
  0x1c, 0x00, 0x00, 0x00, 0x00, 0x00, 0x06, 0x00, 0x08, 0x00, 0x07, 0x00,
  0x06, 0x00, 0x00, 0x00, 0x00, 0x00, 0x00, 0x01, 0x01, 0x00, 0x00, 0x00,
  0x07, 0x00, 0x00, 0x00, 0x03, 0x00, 0x00, 0x00, 0x00, 0x00, 0x00, 0x00,
  0x06, 0x00, 0x00, 0x00, 0x05, 0x00, 0x00, 0x00, 0x01, 0x00, 0x00, 0x00,
  0x0a, 0x00, 0x00, 0x00, 0x01, 0x00, 0x00, 0x00, 0x00, 0x00, 0x00, 0x00,
  0x0b, 0x00, 0x00, 0x00, 0xfc, 0x03, 0x00, 0x00, 0xa4, 0x03, 0x00, 0x00,
  0x4c, 0x03, 0x00, 0x00, 0x10, 0x03, 0x00, 0x00, 0xb4, 0x02, 0x00, 0x00,
  0x5c, 0x02, 0x00, 0x00, 0x10, 0x02, 0x00, 0x00, 0x7c, 0x01, 0x00, 0x00,
  0xe0, 0x00, 0x00, 0x00, 0x60, 0x00, 0x00, 0x00, 0x04, 0x00, 0x00, 0x00,
  0x46, 0xfc, 0xff, 0xff, 0x00, 0x00, 0x00, 0x01, 0x14, 0x00, 0x00, 0x00,
  0x1c, 0x00, 0x00, 0x00, 0x1c, 0x00, 0x00, 0x00, 0x0b, 0x00, 0x00, 0x00,
  0x34, 0x00, 0x00, 0x00, 0x02, 0x00, 0x00, 0x00, 0xff, 0xff, 0xff, 0xff,
  0x03, 0x00, 0x00, 0x00, 0x30, 0xfc, 0xff, 0xff, 0x1b, 0x00, 0x00, 0x00,
  0x53, 0x74, 0x61, 0x74, 0x65, 0x66, 0x75, 0x6c, 0x50, 0x61, 0x72, 0x74,
  0x69, 0x74, 0x69, 0x6f, 0x6e, 0x65, 0x64, 0x43, 0x61, 0x6c, 0x6c, 0x5f,
  0x31, 0x3a, 0x30, 0x00, 0x02, 0x00, 0x00, 0x00, 0x01, 0x00, 0x00, 0x00,
  0x03, 0x00, 0x00, 0x00, 0x9e, 0xfc, 0xff, 0xff, 0x00, 0x00, 0x00, 0x01,
  0x14, 0x00, 0x00, 0x00, 0x1c, 0x00, 0x00, 0x00, 0x1c, 0x00, 0x00, 0x00,
  0x0a, 0x00, 0x00, 0x00, 0x58, 0x00, 0x00, 0x00, 0x02, 0x00, 0x00, 0x00,
  0xff, 0xff, 0xff, 0xff, 0x03, 0x00, 0x00, 0x00, 0x88, 0xfc, 0xff, 0xff,
  0x3c, 0x00, 0x00, 0x00, 0x73, 0x65, 0x71, 0x75, 0x65, 0x6e, 0x74, 0x69,
  0x61, 0x6c, 0x5f, 0x31, 0x2f, 0x64, 0x65, 0x6e, 0x73, 0x65, 0x5f, 0x32,
  0x5f, 0x31, 0x2f, 0x4d, 0x61, 0x74, 0x4d, 0x75, 0x6c, 0x3b, 0x73, 0x65,
  0x71, 0x75, 0x65, 0x6e, 0x74, 0x69, 0x61, 0x6c, 0x5f, 0x31, 0x2f, 0x64,
  0x65, 0x6e, 0x73, 0x65, 0x5f, 0x32, 0x5f, 0x31, 0x2f, 0x42, 0x69, 0x61,
  0x73, 0x41, 0x64, 0x64, 0x00, 0x00, 0x00, 0x00, 0x02, 0x00, 0x00, 0x00,
  0x01, 0x00, 0x00, 0x00, 0x03, 0x00, 0x00, 0x00, 0x1a, 0xfd, 0xff, 0xff,
  0x00, 0x00, 0x00, 0x01, 0x14, 0x00, 0x00, 0x00, 0x1c, 0x00, 0x00, 0x00,
  0x1c, 0x00, 0x00, 0x00, 0x09, 0x00, 0x00, 0x00, 0x74, 0x00, 0x00, 0x00,
  0x02, 0x00, 0x00, 0x00, 0xff, 0xff, 0xff, 0xff, 0x08, 0x00, 0x00, 0x00,
  0x04, 0xfd, 0xff, 0xff, 0x58, 0x00, 0x00, 0x00, 0x73, 0x65, 0x71, 0x75,
  0x65, 0x6e, 0x74, 0x69, 0x61, 0x6c, 0x5f, 0x31, 0x2f, 0x64, 0x65, 0x6e,
  0x73, 0x65, 0x5f, 0x31, 0x5f, 0x32, 0x2f, 0x4d, 0x61, 0x74, 0x4d, 0x75,
  0x6c, 0x3b, 0x73, 0x65, 0x71, 0x75, 0x65, 0x6e, 0x74, 0x69, 0x61, 0x6c,
  0x5f, 0x31, 0x2f, 0x64, 0x65, 0x6e, 0x73, 0x65, 0x5f, 0x31, 0x5f, 0x32,
  0x2f, 0x52, 0x65, 0x6c, 0x75, 0x3b, 0x73, 0x65, 0x71, 0x75, 0x65, 0x6e,
  0x74, 0x69, 0x61, 0x6c, 0x5f, 0x31, 0x2f, 0x64, 0x65, 0x6e, 0x73, 0x65,
  0x5f, 0x31, 0x5f, 0x32, 0x2f, 0x42, 0x69, 0x61, 0x73, 0x41, 0x64, 0x64,
  0x00, 0x00, 0x00, 0x00, 0x02, 0x00, 0x00, 0x00, 0x01, 0x00, 0x00, 0x00,
  0x08, 0x00, 0x00, 0x00, 0xb2, 0xfd, 0xff, 0xff, 0x00, 0x00, 0x00, 0x01,
  0x14, 0x00, 0x00, 0x00, 0x1c, 0x00, 0x00, 0x00, 0x1c, 0x00, 0x00, 0x00,
  0x08, 0x00, 0x00, 0x00, 0x6c, 0x00, 0x00, 0x00, 0x02, 0x00, 0x00, 0x00,
  0xff, 0xff, 0xff, 0xff, 0x10, 0x00, 0x00, 0x00, 0x9c, 0xfd, 0xff, 0xff,
  0x52, 0x00, 0x00, 0x00, 0x73, 0x65, 0x71, 0x75, 0x65, 0x6e, 0x74, 0x69,
  0x61, 0x6c, 0x5f, 0x31, 0x2f, 0x64, 0x65, 0x6e, 0x73, 0x65, 0x5f, 0x31,
  0x2f, 0x4d, 0x61, 0x74, 0x4d, 0x75, 0x6c, 0x3b, 0x73, 0x65, 0x71, 0x75,
  0x65, 0x6e, 0x74, 0x69, 0x61, 0x6c, 0x5f, 0x31, 0x2f, 0x64, 0x65, 0x6e,
  0x73, 0x65, 0x5f, 0x31, 0x2f, 0x52, 0x65, 0x6c, 0x75, 0x3b, 0x73, 0x65,
  0x71, 0x75, 0x65, 0x6e, 0x74, 0x69, 0x61, 0x6c, 0x5f, 0x31, 0x2f, 0x64,
  0x65, 0x6e, 0x73, 0x65, 0x5f, 0x31, 0x2f, 0x42, 0x69, 0x61, 0x73, 0x41,
  0x64, 0x64, 0x00, 0x00, 0x02, 0x00, 0x00, 0x00, 0x01, 0x00, 0x00, 0x00,
  0x10, 0x00, 0x00, 0x00, 0x96, 0xfe, 0xff, 0xff, 0x00, 0x00, 0x00, 0x01,
  0x10, 0x00, 0x00, 0x00, 0x10, 0x00, 0x00, 0x00, 0x07, 0x00, 0x00, 0x00,
  0x28, 0x00, 0x00, 0x00, 0x1c, 0xfe, 0xff, 0xff, 0x1b, 0x00, 0x00, 0x00,
  0x73, 0x65, 0x71, 0x75, 0x65, 0x6e, 0x74, 0x69, 0x61, 0x6c, 0x5f, 0x31,
  0x2f, 0x64, 0x65, 0x6e, 0x73, 0x65, 0x5f, 0x31, 0x2f, 0x4d, 0x61, 0x74,
  0x4d, 0x75, 0x6c, 0x00, 0x02, 0x00, 0x00, 0x00, 0x10, 0x00, 0x00, 0x00,
  0x01, 0x00, 0x00, 0x00, 0xde, 0xfe, 0xff, 0xff, 0x00, 0x00, 0x00, 0x01,
  0x10, 0x00, 0x00, 0x00, 0x10, 0x00, 0x00, 0x00, 0x06, 0x00, 0x00, 0x00,
  0x38, 0x00, 0x00, 0x00, 0x64, 0xfe, 0xff, 0xff, 0x2b, 0x00, 0x00, 0x00,
  0x73, 0x65, 0x71, 0x75, 0x65, 0x6e, 0x74, 0x69, 0x61, 0x6c, 0x5f, 0x31,
  0x2f, 0x64, 0x65, 0x6e, 0x73, 0x65, 0x5f, 0x31, 0x2f, 0x42, 0x69, 0x61,
  0x73, 0x41, 0x64, 0x64, 0x2f, 0x52, 0x65, 0x61, 0x64, 0x56, 0x61, 0x72,
  0x69, 0x61, 0x62, 0x6c, 0x65, 0x4f, 0x70, 0x00, 0x01, 0x00, 0x00, 0x00,
  0x10, 0x00, 0x00, 0x00, 0x32, 0xff, 0xff, 0xff, 0x00, 0x00, 0x00, 0x01,
  0x10, 0x00, 0x00, 0x00, 0x10, 0x00, 0x00, 0x00, 0x05, 0x00, 0x00, 0x00,
  0x3c, 0x00, 0x00, 0x00, 0xb8, 0xfe, 0xff, 0xff, 0x2d, 0x00, 0x00, 0x00,
  0x73, 0x65, 0x71, 0x75, 0x65, 0x6e, 0x74, 0x69, 0x61, 0x6c, 0x5f, 0x31,
  0x2f, 0x64, 0x65, 0x6e, 0x73, 0x65, 0x5f, 0x31, 0x5f, 0x32, 0x2f, 0x42,
  0x69, 0x61, 0x73, 0x41, 0x64, 0x64, 0x2f, 0x52, 0x65, 0x61, 0x64, 0x56,
  0x61, 0x72, 0x69, 0x61, 0x62, 0x6c, 0x65, 0x4f, 0x70, 0x00, 0x00, 0x00,
  0x01, 0x00, 0x00, 0x00, 0x08, 0x00, 0x00, 0x00, 0x8a, 0xff, 0xff, 0xff,
  0x00, 0x00, 0x00, 0x01, 0x10, 0x00, 0x00, 0x00, 0x10, 0x00, 0x00, 0x00,
  0x04, 0x00, 0x00, 0x00, 0x1c, 0x00, 0x00, 0x00, 0x10, 0xff, 0xff, 0xff,
  0x0f, 0x00, 0x00, 0x00, 0x61, 0x72, 0x69, 0x74, 0x68, 0x2e, 0x63, 0x6f,
  0x6e, 0x73, 0x74, 0x61, 0x6e, 0x74, 0x32, 0x00, 0x01, 0x00, 0x00, 0x00,
  0x03, 0x00, 0x00, 0x00, 0xc2, 0xff, 0xff, 0xff, 0x00, 0x00, 0x00, 0x01,
  0x10, 0x00, 0x00, 0x00, 0x10, 0x00, 0x00, 0x00, 0x03, 0x00, 0x00, 0x00,
  0x1c, 0x00, 0x00, 0x00, 0x48, 0xff, 0xff, 0xff, 0x0f, 0x00, 0x00, 0x00,
  0x61, 0x72, 0x69, 0x74, 0x68, 0x2e, 0x63, 0x6f, 0x6e, 0x73, 0x74, 0x61,
  0x6e, 0x74, 0x31, 0x00, 0x02, 0x00, 0x00, 0x00, 0x08, 0x00, 0x00, 0x00,
  0x10, 0x00, 0x00, 0x00, 0x00, 0x00, 0x16, 0x00, 0x18, 0x00, 0x14, 0x00,
  0x00, 0x00, 0x10, 0x00, 0x0c, 0x00, 0x08, 0x00, 0x00, 0x00, 0x00, 0x00,
  0x00, 0x00, 0x07, 0x00, 0x16, 0x00, 0x00, 0x00, 0x00, 0x00, 0x00, 0x01,
  0x10, 0x00, 0x00, 0x00, 0x10, 0x00, 0x00, 0x00, 0x02, 0x00, 0x00, 0x00,
  0x1c, 0x00, 0x00, 0x00, 0x9c, 0xff, 0xff, 0xff, 0x0e, 0x00, 0x00, 0x00,
  0x61, 0x72, 0x69, 0x74, 0x68, 0x2e, 0x63, 0x6f, 0x6e, 0x73, 0x74, 0x61,
  0x6e, 0x74, 0x00, 0x00, 0x02, 0x00, 0x00, 0x00, 0x03, 0x00, 0x00, 0x00,
  0x08, 0x00, 0x00, 0x00, 0x00, 0x00, 0x16, 0x00, 0x1c, 0x00, 0x18, 0x00,
  0x00, 0x00, 0x14, 0x00, 0x10, 0x00, 0x0c, 0x00, 0x00, 0x00, 0x00, 0x00,
  0x08, 0x00, 0x07, 0x00, 0x16, 0x00, 0x00, 0x00, 0x00, 0x00, 0x00, 0x01,
  0x14, 0x00, 0x00, 0x00, 0x20, 0x00, 0x00, 0x00, 0x20, 0x00, 0x00, 0x00,
  0x01, 0x00, 0x00, 0x00, 0x3c, 0x00, 0x00, 0x00, 0x02, 0x00, 0x00, 0x00,
  0xff, 0xff, 0xff, 0xff, 0x01, 0x00, 0x00, 0x00, 0x04, 0x00, 0x04, 0x00,
  0x04, 0x00, 0x00, 0x00, 0x1e, 0x00, 0x00, 0x00, 0x73, 0x65, 0x72, 0x76,
  0x69, 0x6e, 0x67, 0x5f, 0x64, 0x65, 0x66, 0x61, 0x75, 0x6c, 0x74, 0x5f,
  0x6b, 0x65, 0x72, 0x61, 0x73, 0x5f, 0x74, 0x65, 0x6e, 0x73, 0x6f, 0x72,
  0x3a, 0x30, 0x00, 0x00, 0x02, 0x00, 0x00, 0x00, 0x01, 0x00, 0x00, 0x00,
  0x01, 0x00, 0x00, 0x00, 0x02, 0x00, 0x00, 0x00, 0x20, 0x00, 0x00, 0x00,
  0x04, 0x00, 0x00, 0x00, 0xf4, 0xff, 0xff, 0xff, 0x19, 0x00, 0x00, 0x00,
  0x00, 0x00, 0x00, 0x19, 0x0c, 0x00, 0x0c, 0x00, 0x0b, 0x00, 0x00, 0x00,
  0x00, 0x00, 0x04, 0x00, 0x0c, 0x00, 0x00, 0x00, 0x09, 0x00, 0x00, 0x00,
  0x00, 0x00, 0x00, 0x09
};
