unsigned char g_model[] = {
  0x1c, 0x00, 0x00, 0x00, 0x54, 0x46, 0x4c, 0x33, 0x14, 0x00, 0x20, 0x00,
  0x1c, 0x00, 0x18, 0x00, 0x14, 0x00, 0x10, 0x00, 0x0c, 0x00, 0x00, 0x00,
  0x08, 0x00, 0x04, 0x00, 0x14, 0x00, 0x00, 0x00, 0x1c, 0x00, 0x00, 0x00,
  0x98, 0x00, 0x00, 0x00, 0xf0, 0x00, 0x00, 0x00, 0x1c, 0x05, 0x00, 0x00,
  0x2c, 0x05, 0x00, 0x00, 0xe0, 0x0a, 0x00, 0x00, 0x03, 0x00, 0x00, 0x00,
  0x01, 0x00, 0x00, 0x00, 0x10, 0x00, 0x00, 0x00, 0x00, 0x00, 0x0a, 0x00,
  0x10, 0x00, 0x0c, 0x00, 0x08, 0x00, 0x04, 0x00, 0x0a, 0x00, 0x00, 0x00,
  0x0c, 0x00, 0x00, 0x00, 0x1c, 0x00, 0x00, 0x00, 0x3c, 0x00, 0x00, 0x00,
  0x0f, 0x00, 0x00, 0x00, 0x73, 0x65, 0x72, 0x76, 0x69, 0x6e, 0x67, 0x5f,
  0x64, 0x65, 0x66, 0x61, 0x75, 0x6c, 0x74, 0x00, 0x01, 0x00, 0x00, 0x00,
  0x04, 0x00, 0x00, 0x00, 0x90, 0xff, 0xff, 0xff, 0x0a, 0x00, 0x00, 0x00,
  0x04, 0x00, 0x00, 0x00, 0x08, 0x00, 0x00, 0x00, 0x6f, 0x75, 0x74, 0x70,
  0x75, 0x74, 0x5f, 0x30, 0x00, 0x00, 0x00, 0x00, 0x01, 0x00, 0x00, 0x00,
  0x04, 0x00, 0x00, 0x00, 0xca, 0xfa, 0xff, 0xff, 0x04, 0x00, 0x00, 0x00,
  0x0c, 0x00, 0x00, 0x00, 0x6b, 0x65, 0x72, 0x61, 0x73, 0x5f, 0x74, 0x65,
  0x6e, 0x73, 0x6f, 0x72, 0x00, 0x00, 0x00, 0x00, 0x02, 0x00, 0x00, 0x00,
  0x34, 0x00, 0x00, 0x00, 0x04, 0x00, 0x00, 0x00, 0xdc, 0xff, 0xff, 0xff,
  0x0d, 0x00, 0x00, 0x00, 0x04, 0x00, 0x00, 0x00, 0x13, 0x00, 0x00, 0x00,
  0x43, 0x4f, 0x4e, 0x56, 0x45, 0x52, 0x53, 0x49, 0x4f, 0x4e, 0x5f, 0x4d,
  0x45, 0x54, 0x41, 0x44, 0x41, 0x54, 0x41, 0x00, 0x08, 0x00, 0x0c, 0x00,
  0x08, 0x00, 0x04, 0x00, 0x08, 0x00, 0x00, 0x00, 0x0c, 0x00, 0x00, 0x00,
  0x04, 0x00, 0x00, 0x00, 0x13, 0x00, 0x00, 0x00, 0x6d, 0x69, 0x6e, 0x5f,
  0x72, 0x75, 0x6e, 0x74, 0x69, 0x6d, 0x65, 0x5f, 0x76, 0x65, 0x72, 0x73,
  0x69, 0x6f, 0x6e, 0x00, 0x0e, 0x00, 0x00, 0x00, 0x28, 0x04, 0x00, 0x00,
  0x20, 0x04, 0x00, 0x00, 0xb0, 0x03, 0x00, 0x00, 0xa0, 0x01, 0x00, 0x00,
  0x84, 0x01, 0x00, 0x00, 0x54, 0x01, 0x00, 0x00, 0x04, 0x01, 0x00, 0x00,
  0xb4, 0x00, 0x00, 0x00, 0xac, 0x00, 0x00, 0x00, 0xa4, 0x00, 0x00, 0x00,
  0x9c, 0x00, 0x00, 0x00, 0x94, 0x00, 0x00, 0x00, 0x74, 0x00, 0x00, 0x00,
  0x04, 0x00, 0x00, 0x00, 0x7e, 0xfb, 0xff, 0xff, 0x04, 0x00, 0x00, 0x00,
  0x60, 0x00, 0x00, 0x00, 0x0c, 0x00, 0x00, 0x00, 0x08, 0x00, 0x0e, 0x00,
  0x08, 0x00, 0x04, 0x00, 0x08, 0x00, 0x00, 0x00, 0x10, 0x00, 0x00, 0x00,
  0x28, 0x00, 0x00, 0x00, 0x00, 0x00, 0x06, 0x00, 0x08, 0x00, 0x04, 0x00,
  0x06, 0x00, 0x00, 0x00, 0x04, 0x00, 0x00, 0x00, 0x01, 0x00, 0x00, 0x00,
  0xea, 0x03, 0x00, 0x00, 0x0c, 0x00, 0x18, 0x00, 0x14, 0x00, 0x10, 0x00,
  0x0c, 0x00, 0x04, 0x00, 0x0c, 0x00, 0x00, 0x00, 0xf7, 0xce, 0x85, 0x4f,
  0x65, 0xe9, 0x32, 0xe6, 0x02, 0x00, 0x00, 0x00, 0x02, 0x00, 0x00, 0x00,
  0x04, 0x00, 0x00, 0x00, 0x06, 0x00, 0x00, 0x00, 0x32, 0x2e, 0x31, 0x38,
  0x2e, 0x30, 0x00, 0x00, 0xea, 0xfb, 0xff, 0xff, 0x04, 0x00, 0x00, 0x00,
  0x10, 0x00, 0x00, 0x00, 0x31, 0x2e, 0x35, 0x2e, 0x30, 0x00, 0x00, 0x00,
  0x00, 0x00, 0x00, 0x00, 0x00, 0x00, 0x00, 0x00, 0x00, 0xf7, 0xff, 0xff,
  0x04, 0xf7, 0xff, 0xff, 0x08, 0xf7, 0xff, 0xff, 0x0c, 0xf7, 0xff, 0xff,
  0x16, 0xfc, 0xff, 0xff, 0x04, 0x00, 0x00, 0x00, 0x40, 0x00, 0x00, 0x00,
  0x84, 0xdd, 0x89, 0xbf, 0x61, 0x75, 0xbc, 0x3f, 0x67, 0x29, 0x4f, 0xbf,
  0xec, 0x2d, 0x93, 0x3f, 0xf4, 0xfb, 0x80, 0x3e, 0x14, 0xfb, 0xa9, 0xbf,
  0xf8, 0x55, 0x3e, 0x3f, 0x7e, 0x26, 0x3d, 0x3f, 0x7c, 0x16, 0x78, 0x3f,
  0x97, 0x31, 0x41, 0x3e, 0xc5, 0xf4, 0x82, 0xbf, 0x01, 0xe2, 0xcb, 0xbf,
  0x35, 0x19, 0xe1, 0xbf, 0x76, 0x09, 0xbe, 0xbf, 0x0f, 0x68, 0x69, 0x3f,
  0xf1, 0x0b, 0x65, 0x3f, 0x62, 0xfc, 0xff, 0xff, 0x04, 0x00, 0x00, 0x00,
  0x40, 0x00, 0x00, 0x00, 0x98, 0x23, 0xc3, 0xbe, 0xe5, 0xf3, 0x74, 0x3e,
  0x0e, 0xda, 0x31, 0x3f, 0xd3, 0xcf, 0x3d, 0x3e, 0x49, 0x23, 0xa1, 0xbd,
  0xc8, 0x3f, 0x7e, 0xba, 0x68, 0x0f, 0x2f, 0x3b, 0x10, 0xc1, 0xef, 0x3d,
  0xf6, 0xb7, 0xff, 0x38, 0xaf, 0xd2, 0xd8, 0x3a, 0xd5, 0x3e, 0x8e, 0x3e,
  0xb8, 0x2f, 0xb9, 0x3d, 0x43, 0xb9, 0xaa, 0xbe, 0x29, 0xeb, 0x92, 0xbe,
  0xcd, 0x6c, 0x88, 0xba, 0xdc, 0xeb, 0x53, 0xbf, 0xae, 0xfc, 0xff, 0xff,
  0x04, 0x00, 0x00, 0x00, 0x20, 0x00, 0x00, 0x00, 0x63, 0x1b, 0x99, 0x3e,
  0x3e, 0x56, 0x51, 0xbc, 0x19, 0xc8, 0xbc, 0xbd, 0x97, 0xe1, 0x82, 0xbf,
  0x69, 0xbd, 0xd5, 0xbe, 0x25, 0x31, 0x40, 0xbe, 0x83, 0x18, 0xa4, 0x3e,
  0x69, 0x8a, 0xdc, 0xbf, 0xda, 0xfc, 0xff, 0xff, 0x04, 0x00, 0x00, 0x00,
  0x0c, 0x00, 0x00, 0x00, 0x8c, 0x5c, 0x4a, 0x3f, 0x82, 0xfe, 0xb1, 0xbf,
  0xec, 0x71, 0x16, 0x3f, 0xf2, 0xfc, 0xff, 0xff, 0x04, 0x00, 0x00, 0x00,
  0x00, 0x02, 0x00, 0x00, 0x9c, 0xef, 0xf1, 0xbe, 0xc7, 0x50, 0x19, 0x3e,
  0x66, 0x4f, 0xfb, 0xbf, 0x10, 0x0b, 0xcf, 0x3c, 0xee, 0x02, 0x8f, 0xbe,
  0xec, 0xf8, 0xf6, 0xbe, 0xa4, 0xdb, 0x7d, 0x3d, 0x01, 0x8f, 0xf3, 0x3e,
  0x61, 0xa4, 0xa6, 0xbe, 0x68, 0x25, 0x62, 0x3e, 0x3d, 0x50, 0xdf, 0x3e,
  0x83, 0x58, 0x90, 0x3d, 0x48, 0x5d, 0x7e, 0xbe, 0x14, 0x4f, 0xe2, 0xbe,
  0xd0, 0xa6, 0xda, 0x3e, 0x55, 0x19, 0x8e, 0xc0, 0xdd, 0xba, 0x42, 0x3e,
  0xf8, 0x0f, 0xd6, 0xbe, 0xff, 0x6d, 0xef, 0xbe, 0x60, 0xe7, 0xd4, 0x3e,
  0x00, 0x31, 0xa5, 0x3d, 0x86, 0x64, 0xac, 0x3e, 0xa0, 0x44, 0xe3, 0x3d,
  0x20, 0xb3, 0x8b, 0xbd, 0x88, 0x77, 0xa3, 0xbe, 0xb4, 0xb8, 0xa8, 0x3e,
  0x03, 0xf8, 0x0a, 0x3e, 0x2b, 0x9d, 0x8a, 0xbe, 0xbc, 0x44, 0x31, 0x3e,
  0x94, 0x92, 0x03, 0xbf, 0x40, 0x90, 0x9c, 0xbe, 0xe4, 0x20, 0x8c, 0xbe,
  0x51, 0xed, 0xc7, 0xbf, 0x2b, 0x2c, 0xa3, 0x3f, 0x64, 0x50, 0xd6, 0x3e,
  0x5c, 0x88, 0x66, 0x3f, 0xdd, 0x3d, 0x9e, 0xbe, 0xd0, 0x1b, 0x50, 0xbf,
  0x9e, 0xcf, 0x53, 0xbf, 0xab, 0x84, 0x75, 0x3f, 0x58, 0xc0, 0xc2, 0xbf,
  0x63, 0xa5, 0xa9, 0xbe, 0xab, 0x67, 0xcd, 0x3e, 0x27, 0xf9, 0x37, 0xbf,
  0x51, 0x85, 0xc5, 0x3f, 0xa6, 0x04, 0xcb, 0x3f, 0xbe, 0xd2, 0x90, 0xbf,
  0xf2, 0x54, 0x3c, 0xc0, 0xc9, 0xc9, 0x33, 0x3f, 0xfd, 0xc0, 0xbf, 0xbe,
  0xa7, 0x2e, 0x2d, 0xbf, 0x1e, 0x85, 0xcd, 0xbe, 0x1c, 0x4f, 0x97, 0xbe,
  0x09, 0x8c, 0x00, 0x3f, 0xc3, 0x72, 0xf9, 0x3e, 0xe0, 0xeb, 0x5d, 0x3e,
  0x8c, 0x8f, 0x98, 0x3e, 0x8f, 0xc9, 0x8b, 0xbe, 0xea, 0x2a, 0x6f, 0xbe,
  0xc6, 0xa8, 0x24, 0x3e, 0xaa, 0x46, 0x55, 0x3f, 0x75, 0xdf, 0x64, 0x3f,
  0xb9, 0x4a, 0xcb, 0xbe, 0x00, 0xc1, 0x05, 0xbd, 0xe0, 0xbc, 0xdb, 0xbd,
  0x6b, 0x0b, 0x08, 0xbe, 0x69, 0x49, 0xa4, 0xc0, 0x31, 0x84, 0xf3, 0x3e,
  0x54, 0x7e, 0x03, 0x3f, 0xe4, 0xd9, 0x88, 0xbe, 0x4e, 0x27, 0xb6, 0x3e,
  0x12, 0xc1, 0xe1, 0x3e, 0xfd, 0x58, 0x47, 0x3e, 0x33, 0x52, 0x57, 0xbe,
  0x94, 0x3e, 0x2e, 0xbe, 0x85, 0x6a, 0xe6, 0xbe, 0x80, 0x4c, 0x55, 0x3c,
  0x60, 0x2f, 0x0c, 0x3d, 0x30, 0x1d, 0x69, 0x3e, 0xd4, 0xd5, 0x8b, 0xbf,
  0x1b, 0xaa, 0xee, 0xbf, 0x16, 0x92, 0x6d, 0x3e, 0xb6, 0x3d, 0x3b, 0xbe,
  0x74, 0x29, 0xee, 0x3d, 0xa0, 0xfb, 0x78, 0x3e, 0x73, 0xe0, 0x9e, 0xc0,
  0x5e, 0xbe, 0x2d, 0x3f, 0xf6, 0xa1, 0x03, 0x3e, 0xb5, 0x6e, 0xb7, 0x3c,
  0x26, 0x08, 0x0c, 0x3e, 0x83, 0xf4, 0xfc, 0x3f, 0xa2, 0xd5, 0x87, 0xc0,
  0x53, 0xdc, 0xb5, 0x3e, 0x35, 0x40, 0x38, 0x3d, 0x53, 0x94, 0xe8, 0x3e,
  0x0c, 0x8d, 0x29, 0x3f, 0xff, 0xbd, 0xa3, 0x3e, 0xd5, 0x5c, 0x9d, 0x3e,
  0x58, 0x5d, 0x57, 0xbf, 0xfe, 0x1a, 0x8a, 0x3e, 0x5c, 0xc7, 0x0c, 0xbd,
  0x97, 0x97, 0x2f, 0x3e, 0x29, 0x0a, 0x48, 0x3e, 0x92, 0x85, 0x77, 0x3e,
  0x9c, 0xbf, 0x5a, 0x3e, 0x04, 0x39, 0x60, 0x3e, 0xbd, 0xd5, 0xc3, 0xc0,
  0xd6, 0x46, 0x99, 0xbd, 0x85, 0x13, 0xaa, 0xbd, 0x17, 0xf4, 0xa4, 0x3e,
  0xe4, 0x79, 0x3e, 0x3e, 0x59, 0x50, 0x97, 0xbf, 0xec, 0xd1, 0x9e, 0xbe,
  0xab, 0x89, 0xa6, 0x3d, 0xa0, 0xab, 0x2b, 0xbe, 0x90, 0x42, 0xd4, 0x3d,
  0x1f, 0xc5, 0xc6, 0x3e, 0xd4, 0x73, 0x87, 0xbe, 0x86, 0x84, 0x96, 0x3e,
  0xf9, 0x08, 0xbc, 0xbd, 0xf2, 0x21, 0xa8, 0xbe, 0x6f, 0x6d, 0xc2, 0xbe,
  0x60, 0xa7, 0x7c, 0xbd, 0x3c, 0x36, 0xc1, 0x3e, 0x14, 0xd2, 0x98, 0xbe,
  0xdc, 0x3f, 0xa7, 0x3e, 0x3a, 0x28, 0x93, 0x3e, 0x51, 0x5f, 0xa2, 0x3f,
  0xfe, 0xfe, 0xff, 0xff, 0x04, 0x00, 0x00, 0x00, 0x60, 0x00, 0x00, 0x00,
  0x9c, 0xbc, 0x92, 0x3f, 0x28, 0xfe, 0x85, 0x3e, 0xb8, 0x1e, 0x6c, 0xbf,
  0xf3, 0xc2, 0x84, 0x40, 0x3e, 0xaa, 0xbc, 0x3f, 0x8e, 0x07, 0xa8, 0xbf,
  0x9a, 0xcc, 0x51, 0xbe, 0xb4, 0xfc, 0xa9, 0x3f, 0xb6, 0xc8, 0x6b, 0xc0,
  0xd4, 0xf1, 0x80, 0x3e, 0x16, 0x81, 0xe7, 0x3f, 0x27, 0xfe, 0xb4, 0xbe,
  0x1d, 0x35, 0xeb, 0xbd, 0x66, 0x49, 0x82, 0x3f, 0x96, 0x27, 0xeb, 0xbe,
  0x04, 0xf8, 0xbb, 0xbf, 0x89, 0xab, 0xb7, 0xbe, 0x77, 0x3f, 0x39, 0x3f,
  0x32, 0xae, 0x83, 0xbf, 0x5c, 0x31, 0xf5, 0xc0, 0xd8, 0x5e, 0x2f, 0xbf,
  0x81, 0x3d, 0x3f, 0x3e, 0xe9, 0xef, 0x7b, 0x3f, 0x77, 0x1f, 0x72, 0x3e,
  0x64, 0xfa, 0xff, 0xff, 0x68, 0xfa, 0xff, 0xff, 0x0f, 0x00, 0x00, 0x00,
  0x4d, 0x4c, 0x49, 0x52, 0x20, 0x43, 0x6f, 0x6e, 0x76, 0x65, 0x72, 0x74,
  0x65, 0x64, 0x2e, 0x00, 0x01, 0x00, 0x00, 0x00, 0x14, 0x00, 0x00, 0x00,
  0x00, 0x00, 0x0e, 0x00, 0x18, 0x00, 0x14, 0x00, 0x10, 0x00, 0x0c, 0x00,
  0x08, 0x00, 0x04, 0x00, 0x0e, 0x00, 0x00, 0x00, 0x14, 0x00, 0x00, 0x00,
  0x1c, 0x00, 0x00, 0x00, 0x24, 0x01, 0x00, 0x00, 0x28, 0x01, 0x00, 0x00,
  0x2c, 0x01, 0x00, 0x00, 0x04, 0x00, 0x00, 0x00, 0x6d, 0x61, 0x69, 0x6e,
  0x00, 0x00, 0x00, 0x00, 0x04, 0x00, 0x00, 0x00, 0xcc, 0x00, 0x00, 0x00,
  0x84, 0x00, 0x00, 0x00, 0x50, 0x00, 0x00, 0x00, 0x14, 0x00, 0x00, 0x00,
  0x00, 0x00, 0x0e, 0x00, 0x1a, 0x00, 0x14, 0x00, 0x10, 0x00, 0x0c, 0x00,
  0x0b, 0x00, 0x04, 0x00, 0x0e, 0x00, 0x00, 0x00, 0x1c, 0x00, 0x00, 0x00,
  0x00, 0x00, 0x00, 0x09, 0x1c, 0x00, 0x00, 0x00, 0x20, 0x00, 0x00, 0x00,
  0x01, 0x00, 0x00, 0x00, 0x00, 0x00, 0x06, 0x00, 0x08, 0x00, 0x04, 0x00,
  0x06, 0x00, 0x00, 0x00, 0x00, 0x00, 0x80, 0x3f, 0x01, 0x00, 0x00, 0x00,
  0x0a, 0x00, 0x00, 0x00, 0x01, 0x00, 0x00, 0x00, 0x09, 0x00, 0x00, 0x00,
  0x9a, 0xff, 0xff, 0xff, 0x10, 0x00, 0x00, 0x00, 0x00, 0x00, 0x00, 0x08,
  0x0c, 0x00, 0x00, 0x00, 0x10, 0x00, 0x00, 0x00, 0x2c, 0xfb, 0xff, 0xff,
  0x01, 0x00, 0x00, 0x00, 0x09, 0x00, 0x00, 0x00, 0x03, 0x00, 0x00, 0x00,
  0x08, 0x00, 0x00, 0x00, 0x01, 0x00, 0x00, 0x00, 0x03, 0x00, 0x00, 0x00,
  0xca, 0xff, 0xff, 0xff, 0x10, 0x00, 0x00, 0x00, 0x00, 0x00, 0x00, 0x08,
  0x10, 0x00, 0x00, 0x00, 0x14, 0x00, 0x00, 0x00, 0xba, 0xff, 0xff, 0xff,
  0x00, 0x00, 0x00, 0x01, 0x01, 0x00, 0x00, 0x00, 0x08, 0x00, 0x00, 0x00,
  0x03, 0x00, 0x00, 0x00, 0x07, 0x00, 0x00, 0x00, 0x02, 0x00, 0x00, 0x00,
  0x04, 0x00, 0x00, 0x00, 0x00, 0x00, 0x0e, 0x00, 0x16, 0x00, 0x00, 0x00,
  0x10, 0x00, 0x0c, 0x00, 0x0b, 0x00, 0x04, 0x00, 0x0e, 0x00, 0x00, 0x00,
  0x18, 0x00, 0x00, 0x00, 0x00, 0x00, 0x00, 0x08, 0x18, 0x00, 0x00, 0x00,
  0x1c, 0x00, 0x00, 0x00, 0x00, 0x00, 0x06, 0x00, 0x08, 0x00, 0x07, 0x00,
  0x06, 0x00, 0x00, 0x00, 0x00, 0x00, 0x00, 0x01, 0x01, 0x00, 0x00, 0x00,
  0x07, 0x00, 0x00, 0x00, 0x03, 0x00, 0x00, 0x00, 0x00, 0x00, 0x00, 0x00,
  0x06, 0x00, 0x00, 0x00, 0x05, 0x00, 0x00, 0x00, 0x01, 0x00, 0x00, 0x00,
  0x0a, 0x00, 0x00, 0x00, 0x01, 0x00, 0x00, 0x00, 0x00, 0x00, 0x00, 0x00,
  0x0b, 0x00, 0x00, 0x00, 0xfc, 0x03, 0x00, 0x00, 0xa4, 0x03, 0x00, 0x00,
  0x4c, 0x03, 0x00, 0x00, 0x10, 0x03, 0x00, 0x00, 0xb4, 0x02, 0x00, 0x00,
  0x5c, 0x02, 0x00, 0x00, 0x10, 0x02, 0x00, 0x00, 0x7c, 0x01, 0x00, 0x00,
  0xe0, 0x00, 0x00, 0x00, 0x60, 0x00, 0x00, 0x00, 0x04, 0x00, 0x00, 0x00,
  0x46, 0xfc, 0xff, 0xff, 0x00, 0x00, 0x00, 0x01, 0x14, 0x00, 0x00, 0x00,
  0x1c, 0x00, 0x00, 0x00, 0x1c, 0x00, 0x00, 0x00, 0x0b, 0x00, 0x00, 0x00,
  0x34, 0x00, 0x00, 0x00, 0x02, 0x00, 0x00, 0x00, 0xff, 0xff, 0xff, 0xff,
  0x03, 0x00, 0x00, 0x00, 0x30, 0xfc, 0xff, 0xff, 0x1b, 0x00, 0x00, 0x00,
  0x53, 0x74, 0x61, 0x74, 0x65, 0x66, 0x75, 0x6c, 0x50, 0x61, 0x72, 0x74,
  0x69, 0x74, 0x69, 0x6f, 0x6e, 0x65, 0x64, 0x43, 0x61, 0x6c, 0x6c, 0x5f,
  0x31, 0x3a, 0x30, 0x00, 0x02, 0x00, 0x00, 0x00, 0x01, 0x00, 0x00, 0x00,
  0x03, 0x00, 0x00, 0x00, 0x9e, 0xfc, 0xff, 0xff, 0x00, 0x00, 0x00, 0x01,
  0x14, 0x00, 0x00, 0x00, 0x1c, 0x00, 0x00, 0x00, 0x1c, 0x00, 0x00, 0x00,
  0x0a, 0x00, 0x00, 0x00, 0x58, 0x00, 0x00, 0x00, 0x02, 0x00, 0x00, 0x00,
  0xff, 0xff, 0xff, 0xff, 0x03, 0x00, 0x00, 0x00, 0x88, 0xfc, 0xff, 0xff,
  0x3c, 0x00, 0x00, 0x00, 0x73, 0x65, 0x71, 0x75, 0x65, 0x6e, 0x74, 0x69,
  0x61, 0x6c, 0x5f, 0x31, 0x2f, 0x64, 0x65, 0x6e, 0x73, 0x65, 0x5f, 0x32,
  0x5f, 0x31, 0x2f, 0x4d, 0x61, 0x74, 0x4d, 0x75, 0x6c, 0x3b, 0x73, 0x65,
  0x71, 0x75, 0x65, 0x6e, 0x74, 0x69, 0x61, 0x6c, 0x5f, 0x31, 0x2f, 0x64,
  0x65, 0x6e, 0x73, 0x65, 0x5f, 0x32, 0x5f, 0x31, 0x2f, 0x42, 0x69, 0x61,
  0x73, 0x41, 0x64, 0x64, 0x00, 0x00, 0x00, 0x00, 0x02, 0x00, 0x00, 0x00,
  0x01, 0x00, 0x00, 0x00, 0x03, 0x00, 0x00, 0x00, 0x1a, 0xfd, 0xff, 0xff,
  0x00, 0x00, 0x00, 0x01, 0x14, 0x00, 0x00, 0x00, 0x1c, 0x00, 0x00, 0x00,
  0x1c, 0x00, 0x00, 0x00, 0x09, 0x00, 0x00, 0x00, 0x74, 0x00, 0x00, 0x00,
  0x02, 0x00, 0x00, 0x00, 0xff, 0xff, 0xff, 0xff, 0x08, 0x00, 0x00, 0x00,
  0x04, 0xfd, 0xff, 0xff, 0x58, 0x00, 0x00, 0x00, 0x73, 0x65, 0x71, 0x75,
  0x65, 0x6e, 0x74, 0x69, 0x61, 0x6c, 0x5f, 0x31, 0x2f, 0x64, 0x65, 0x6e,
  0x73, 0x65, 0x5f, 0x31, 0x5f, 0x32, 0x2f, 0x4d, 0x61, 0x74, 0x4d, 0x75,
  0x6c, 0x3b, 0x73, 0x65, 0x71, 0x75, 0x65, 0x6e, 0x74, 0x69, 0x61, 0x6c,
  0x5f, 0x31, 0x2f, 0x64, 0x65, 0x6e, 0x73, 0x65, 0x5f, 0x31, 0x5f, 0x32,
  0x2f, 0x52, 0x65, 0x6c, 0x75, 0x3b, 0x73, 0x65, 0x71, 0x75, 0x65, 0x6e,
  0x74, 0x69, 0x61, 0x6c, 0x5f, 0x31, 0x2f, 0x64, 0x65, 0x6e, 0x73, 0x65,
  0x5f, 0x31, 0x5f, 0x32, 0x2f, 0x42, 0x69, 0x61, 0x73, 0x41, 0x64, 0x64,
  0x00, 0x00, 0x00, 0x00, 0x02, 0x00, 0x00, 0x00, 0x01, 0x00, 0x00, 0x00,
  0x08, 0x00, 0x00, 0x00, 0xb2, 0xfd, 0xff, 0xff, 0x00, 0x00, 0x00, 0x01,
  0x14, 0x00, 0x00, 0x00, 0x1c, 0x00, 0x00, 0x00, 0x1c, 0x00, 0x00, 0x00,
  0x08, 0x00, 0x00, 0x00, 0x6c, 0x00, 0x00, 0x00, 0x02, 0x00, 0x00, 0x00,
  0xff, 0xff, 0xff, 0xff, 0x10, 0x00, 0x00, 0x00, 0x9c, 0xfd, 0xff, 0xff,
  0x52, 0x00, 0x00, 0x00, 0x73, 0x65, 0x71, 0x75, 0x65, 0x6e, 0x74, 0x69,
  0x61, 0x6c, 0x5f, 0x31, 0x2f, 0x64, 0x65, 0x6e, 0x73, 0x65, 0x5f, 0x31,
  0x2f, 0x4d, 0x61, 0x74, 0x4d, 0x75, 0x6c, 0x3b, 0x73, 0x65, 0x71, 0x75,
  0x65, 0x6e, 0x74, 0x69, 0x61, 0x6c, 0x5f, 0x31, 0x2f, 0x64, 0x65, 0x6e,
  0x73, 0x65, 0x5f, 0x31, 0x2f, 0x52, 0x65, 0x6c, 0x75, 0x3b, 0x73, 0x65,
  0x71, 0x75, 0x65, 0x6e, 0x74, 0x69, 0x61, 0x6c, 0x5f, 0x31, 0x2f, 0x64,
  0x65, 0x6e, 0x73, 0x65, 0x5f, 0x31, 0x2f, 0x42, 0x69, 0x61, 0x73, 0x41,
  0x64, 0x64, 0x00, 0x00, 0x02, 0x00, 0x00, 0x00, 0x01, 0x00, 0x00, 0x00,
  0x10, 0x00, 0x00, 0x00, 0x96, 0xfe, 0xff, 0xff, 0x00, 0x00, 0x00, 0x01,
  0x10, 0x00, 0x00, 0x00, 0x10, 0x00, 0x00, 0x00, 0x07, 0x00, 0x00, 0x00,
  0x28, 0x00, 0x00, 0x00, 0x1c, 0xfe, 0xff, 0xff, 0x1b, 0x00, 0x00, 0x00,
  0x73, 0x65, 0x71, 0x75, 0x65, 0x6e, 0x74, 0x69, 0x61, 0x6c, 0x5f, 0x31,
  0x2f, 0x64, 0x65, 0x6e, 0x73, 0x65, 0x5f, 0x31, 0x2f, 0x4d, 0x61, 0x74,
  0x4d, 0x75, 0x6c, 0x00, 0x02, 0x00, 0x00, 0x00, 0x10, 0x00, 0x00, 0x00,
  0x01, 0x00, 0x00, 0x00, 0xde, 0xfe, 0xff, 0xff, 0x00, 0x00, 0x00, 0x01,
  0x10, 0x00, 0x00, 0x00, 0x10, 0x00, 0x00, 0x00, 0x06, 0x00, 0x00, 0x00,
  0x38, 0x00, 0x00, 0x00, 0x64, 0xfe, 0xff, 0xff, 0x2b, 0x00, 0x00, 0x00,
  0x73, 0x65, 0x71, 0x75, 0x65, 0x6e, 0x74, 0x69, 0x61, 0x6c, 0x5f, 0x31,
  0x2f, 0x64, 0x65, 0x6e, 0x73, 0x65, 0x5f, 0x31, 0x2f, 0x42, 0x69, 0x61,
  0x73, 0x41, 0x64, 0x64, 0x2f, 0x52, 0x65, 0x61, 0x64, 0x56, 0x61, 0x72,
  0x69, 0x61, 0x62, 0x6c, 0x65, 0x4f, 0x70, 0x00, 0x01, 0x00, 0x00, 0x00,
  0x10, 0x00, 0x00, 0x00, 0x32, 0xff, 0xff, 0xff, 0x00, 0x00, 0x00, 0x01,
  0x10, 0x00, 0x00, 0x00, 0x10, 0x00, 0x00, 0x00, 0x05, 0x00, 0x00, 0x00,
  0x3c, 0x00, 0x00, 0x00, 0xb8, 0xfe, 0xff, 0xff, 0x2d, 0x00, 0x00, 0x00,
  0x73, 0x65, 0x71, 0x75, 0x65, 0x6e, 0x74, 0x69, 0x61, 0x6c, 0x5f, 0x31,
  0x2f, 0x64, 0x65, 0x6e, 0x73, 0x65, 0x5f, 0x31, 0x5f, 0x32, 0x2f, 0x42,
  0x69, 0x61, 0x73, 0x41, 0x64, 0x64, 0x2f, 0x52, 0x65, 0x61, 0x64, 0x56,
  0x61, 0x72, 0x69, 0x61, 0x62, 0x6c, 0x65, 0x4f, 0x70, 0x00, 0x00, 0x00,
  0x01, 0x00, 0x00, 0x00, 0x08, 0x00, 0x00, 0x00, 0x8a, 0xff, 0xff, 0xff,
  0x00, 0x00, 0x00, 0x01, 0x10, 0x00, 0x00, 0x00, 0x10, 0x00, 0x00, 0x00,
  0x04, 0x00, 0x00, 0x00, 0x1c, 0x00, 0x00, 0x00, 0x10, 0xff, 0xff, 0xff,
  0x0f, 0x00, 0x00, 0x00, 0x61, 0x72, 0x69, 0x74, 0x68, 0x2e, 0x63, 0x6f,
  0x6e, 0x73, 0x74, 0x61, 0x6e, 0x74, 0x32, 0x00, 0x01, 0x00, 0x00, 0x00,
  0x03, 0x00, 0x00, 0x00, 0xc2, 0xff, 0xff, 0xff, 0x00, 0x00, 0x00, 0x01,
  0x10, 0x00, 0x00, 0x00, 0x10, 0x00, 0x00, 0x00, 0x03, 0x00, 0x00, 0x00,
  0x1c, 0x00, 0x00, 0x00, 0x48, 0xff, 0xff, 0xff, 0x0f, 0x00, 0x00, 0x00,
  0x61, 0x72, 0x69, 0x74, 0x68, 0x2e, 0x63, 0x6f, 0x6e, 0x73, 0x74, 0x61,
  0x6e, 0x74, 0x31, 0x00, 0x02, 0x00, 0x00, 0x00, 0x08, 0x00, 0x00, 0x00,
  0x10, 0x00, 0x00, 0x00, 0x00, 0x00, 0x16, 0x00, 0x18, 0x00, 0x14, 0x00,
  0x00, 0x00, 0x10, 0x00, 0x0c, 0x00, 0x08, 0x00, 0x00, 0x00, 0x00, 0x00,
  0x00, 0x00, 0x07, 0x00, 0x16, 0x00, 0x00, 0x00, 0x00, 0x00, 0x00, 0x01,
  0x10, 0x00, 0x00, 0x00, 0x10, 0x00, 0x00, 0x00, 0x02, 0x00, 0x00, 0x00,
  0x1c, 0x00, 0x00, 0x00, 0x9c, 0xff, 0xff, 0xff, 0x0e, 0x00, 0x00, 0x00,
  0x61, 0x72, 0x69, 0x74, 0x68, 0x2e, 0x63, 0x6f, 0x6e, 0x73, 0x74, 0x61,
  0x6e, 0x74, 0x00, 0x00, 0x02, 0x00, 0x00, 0x00, 0x03, 0x00, 0x00, 0x00,
  0x08, 0x00, 0x00, 0x00, 0x00, 0x00, 0x16, 0x00, 0x1c, 0x00, 0x18, 0x00,
  0x00, 0x00, 0x14, 0x00, 0x10, 0x00, 0x0c, 0x00, 0x00, 0x00, 0x00, 0x00,
  0x08, 0x00, 0x07, 0x00, 0x16, 0x00, 0x00, 0x00, 0x00, 0x00, 0x00, 0x01,
  0x14, 0x00, 0x00, 0x00, 0x20, 0x00, 0x00, 0x00, 0x20, 0x00, 0x00, 0x00,
  0x01, 0x00, 0x00, 0x00, 0x3c, 0x00, 0x00, 0x00, 0x02, 0x00, 0x00, 0x00,
  0xff, 0xff, 0xff, 0xff, 0x01, 0x00, 0x00, 0x00, 0x04, 0x00, 0x04, 0x00,
  0x04, 0x00, 0x00, 0x00, 0x1e, 0x00, 0x00, 0x00, 0x73, 0x65, 0x72, 0x76,
  0x69, 0x6e, 0x67, 0x5f, 0x64, 0x65, 0x66, 0x61, 0x75, 0x6c, 0x74, 0x5f,
  0x6b, 0x65, 0x72, 0x61, 0x73, 0x5f, 0x74, 0x65, 0x6e, 0x73, 0x6f, 0x72,
  0x3a, 0x30, 0x00, 0x00, 0x02, 0x00, 0x00, 0x00, 0x01, 0x00, 0x00, 0x00,
  0x01, 0x00, 0x00, 0x00, 0x02, 0x00, 0x00, 0x00, 0x20, 0x00, 0x00, 0x00,
  0x04, 0x00, 0x00, 0x00, 0xf4, 0xff, 0xff, 0xff, 0x19, 0x00, 0x00, 0x00,
  0x00, 0x00, 0x00, 0x19, 0x0c, 0x00, 0x0c, 0x00, 0x0b, 0x00, 0x00, 0x00,
  0x00, 0x00, 0x04, 0x00, 0x0c, 0x00, 0x00, 0x00, 0x09, 0x00, 0x00, 0x00,
  0x00, 0x00, 0x00, 0x09
};
